<unk>	0
<s>	0
</s>	0
▁t	-0
▁a	-1
▁th	-2
in	-3
▁s	-4
▁the	-5
er	-6
▁w	-7
▁i	-8
▁o	-9
re	-10
▁b	-11
▁m	-12
▁h	-13
▁f	-14
nd	-15
▁c	-16
at	-17
en	-18
es	-19
ing	-20
or	-21
ou	-22
is	-23
on	-24
▁d	-25
▁p	-26
▁and	-27
ll	-28
▁to	-29
▁of	-30
an	-31
ed	-32
ar	-33
▁l	-34
it	-35
▁in	-36
as	-37
▁g	-38
▁is	-39
om	-40
▁n	-41
▁e	-42
▁it	-43
ic	-44
le	-45
ot	-46
al	-47
ut	-48
▁wh	-49
▁be	-50
ct	-51
il	-52
st	-53
▁mo	-54
ve	-55
ie	-56
ly	-57
▁re	-58
▁on	-59
▁this	-60
▁that	-61
ver	-62
ent	-63
ow	-64
▁st	-65
ad	-66
ch	-67
et	-68
ion	-69
▁y	-70
ay	-71
gh	-72
se	-73
▁r	-74
▁mov	-75
▁u	-76
▁was	-77
ith	-78
▁as	-79
▁an	-80
▁for	-81
im	-82
id	-83
ilm	-84
▁sh	-85
▁film	-86
all	-87
▁se	-88
▁with	-89
oo	-90
ke	-91
ce	-92
am	-93
▁j	-94
▁you	-95
ld	-96
th	-97
▁movie	-98
ir	-99
▁ha	-100
▁ch	-101
▁but	-102
▁he	-103
ter	-104
▁li	-105
ur	-106
▁not	-107
ill	-108
ers	-109
▁k	-110
ally	-111
ck	-112
ro	-113
nt	-114
▁his	-115
▁are	-116
▁at	-117
ri	-118
▁su	-119
ra	-120
ome	-121
ere	-122
pe	-123
▁fr	-124
ould	-125
▁de	-126
ul	-127
▁have	-128
▁sc	-129
▁al	-130
▁so	-131
est	-132
ght	-133
▁v	-134
ust	-135
▁do	-136
em	-137
▁we	-138
ant	-139
▁one	-140
▁act	-141
▁who	-142
▁ex	-143
▁ma	-144
▁all	-145
▁ab	-146
▁pl	-147
un	-148
ess	-149
▁com	-150
▁its	-151
very	-152
ab	-153
out	-154
act	-155
ood	-156
▁they	-157
▁ne	-158
▁by	-159
ies	-160
pp	-161
ol	-162
ge	-163
us	-164
ain	-165
▁her	-166
art	-167
▁wor	-168
ous	-169
op	-170
▁or	-171
▁from	-172
▁like	-173
▁some	-174
el	-175
▁con	-176
res	-177
▁out	-178
ist	-179
qu	-180
her	-181
ast	-182
one	-183
and	-184
▁di	-185
ation	-186
▁just	-187
um	-188
▁me	-189
ough	-190
au	-191
ven	-192
os	-193
ight	-194
▁le	-195
▁char	-196
ff	-197
ate	-198
▁pro	-199
ich	-200
▁about	-201
▁has	-202
atch	-203
▁lo	-204
▁tim	-205
ind	-206
ard	-207
▁go	-208
▁man	-209
ory	-210
▁if	-211
▁what	-212
ive	-213
ack	-214
▁un	-215
▁no	-216
pt	-217
ort	-218
▁there	-219
▁any	-220
▁good	-221
▁tr	-222
▁my	-223
ud	-224
ook	-225
▁im	-226
reat	-227
ak	-228
▁charact	-229
▁watch	-230
▁up	-231
▁more	-232
▁get	-233
▁when	-234
ong	-235
▁int	-236
▁fe	-237
▁see	-238
▁very	-239
red	-240
ig	-241
▁would	-242
▁can	-243
▁en	-244
ity	-245
ound	-246
▁she	-247
▁bec	-248
▁cl	-249
fe	-250
ame	-251
▁am	-252
▁story	-253
ite	-254
▁even	-255
▁how	-256
ont	-257
able	-258
▁time	-259
▁ro	-260
▁per	-261
ag	-262
▁only	-263
▁which	-264
▁really	-265
▁show	-266
▁ar	-267
▁their	-268
▁were	-269
▁had	-270
hing	-271
▁oth	-272
▁scen	-273
ious	-274
▁br	-275
▁him	-276
ore	-277
ble	-278
▁te	-279
▁kn	-280
itt	-281
ap	-282
ink	-283
▁pe	-284
▁well	-285
so	-286
▁than	-287
▁did	-288
▁will	-289
ick	-290
oy	-291
ure	-292
are	-293
ays	-294
▁them	-295
man	-296
▁sp	-297
ful	-298
▁qu	-299
▁mu	-300
ars	-301
▁po	-302
▁end	-303
ment	-304
▁does	-305
▁great	-306
ine	-307
our	-308
ci	-309
od	-310
nder	-311
▁bad	-312
▁bet	-313
ade	-314
ves	-315
▁look	-316
▁bl	-317
rect	-318
pl	-319
▁over	-320
▁other	-321
ence	-322
ause	-323
▁much	-324
▁ad	-325
ish	-326
▁most	-327
▁us	-328
▁fa	-329
og	-330
▁tw	-331
▁every	-332
ect	-333
▁could	-334
▁pre	-335
▁been	-336
int	-337
ert	-338
▁dis	-339
▁peop	-340
irst	-341
ice	-342
▁thr	-343
▁af	-344
▁sa	-345
ue	-346
ple	-347
▁into	-348
▁jo	-349
▁know	-350
▁people	-351
ide	-352
▁because	-353
ors	-354
▁also	-355
▁think	-356
ass	-357
▁first	-358
lf	-359
▁ag	-360
▁too	-361
▁direct	-362
for	-363
ry	-364
▁off	-365
▁part	-366
▁dont	-367
▁real	-368
age	-369
▁thing	-370
▁gu	-371
per	-372
▁make	-373
▁way	-374
▁co	-375
▁movies	-376
ans	-377
▁made	-378
▁fun	-379
▁films	-380
other	-381
▁then	-382
ose	-383
▁after	-384
ving	-385
ces	-386
ile	-387
▁fl	-388
▁wr	-389
ict	-390
ull	-391
▁ye	-392
▁characters	-393
▁inter	-394
te	-395
▁seem	-396
cc	-397
ary	-398
ated	-399
ty	-400
own	-401
▁mak	-402
ep	-403
gin	-404
ical	-405
▁play	-406
iew	-407
▁work	-408
▁character	-409
▁ser	-410
ens	-411
ress	-412
▁love	-413
▁aw	-414
ach	-415
ually	-416
▁ho	-417
▁plot	-418
the	-419
▁your	-420
pect	-421
▁never	-422
▁many	-423
▁being	-424
▁seen	-425
▁gr	-426
if	-427
ath	-428
ny	-429
▁want	-430
self	-431
ance	-432
▁two	-433
ph	-434
iz	-435
omet	-436
▁where	-437
▁hor	-438
▁say	-439
ip	-440
ved	-441
▁acting	-442
▁best	-443
▁des	-444
we	-445
ittle	-446
▁somet	-447
▁ent	-448
ang	-449
▁pr	-450
▁little	-451
get	-452
▁cr	-453
▁through	-454
wn	-455
▁back	-456
urn	-457
▁rem	-458
▁ever	-459
▁life	-460
ark	-461
oth	-462
co	-463
ber	-464
ake	-465
▁may	-466
ons	-467
▁spe	-468
▁rec	-469
ian	-470
▁sl	-471
▁fo	-472
▁better	-473
ild	-474
ace	-475
ult	-476
ily	-477
▁id	-478
vel	-479
ions	-480
▁min	-481
du	-482
ire	-483
ise	-484
▁still	-485
augh	-486
▁under	-487
ual	-488
▁bel	-489
▁find	-490
thing	-491
be	-492
▁ke	-493
▁should	-494
ather	-495
▁perfor	-496
▁scene	-497
ne	-498
li	-499
▁cont	-500
vers	-501
▁dr	-502
ought	-503
▁these	-504
▁again	-505
ac	-506
igh	-507
▁kill	-508
▁att	-509
ys	-510
▁scenes	-511
▁here	-512
ertain	-513
▁feel	-514
ase	-515
mo	-516
iend	-517
▁why	-518
▁new	-519
ater	-520
me	-521
▁something	-522
▁gi	-523
▁em	-524
▁sim	-525
ents	-526
▁inc	-527
▁such	-528
▁tra	-529
▁now	-530
▁while	-531
▁lot	-532
▁sur	-533
▁bo	-534
▁gen	-535
▁happ	-536
▁hum	-537
▁interest	-538
ning	-539
▁str	-540
▁eff	-541
▁old	-542
wh	-543
▁imp	-544
▁ap	-545
ree	-546
▁mus	-547
ably	-548
ating	-549
▁cast	-550
ng	-551
ense	-552
▁car	-553
fore	-554
ations	-555
▁those	-556
der	-557
less	-558
▁ev	-559
▁gir	-560
alk	-561
he	-562
ia	-563
▁fam	-564
▁cou	-565
arly	-566
▁point	-567
▁watching	-568
▁performan	-569
▁fin	-570
ting	-571
▁scre	-572
▁wom	-573
▁actors	-574
up	-575
▁res	-576
▁doesnt	-577
▁years	-578
▁didnt	-579
ror	-580
▁dec	-581
▁big	-582
ever	-583
▁ter	-584
▁funny	-585
ying	-586
▁ob	-587
its	-588
joy	-589
▁set	-590
▁though	-591
les	-592
▁down	-593
▁before	-594
▁enjoy	-595
▁che	-596
▁comp	-597
▁comed	-598
▁actually	-599
▁view	-600
▁belie	-601
▁young	-602
▁makes	-603
▁fact	-604
▁nothing	-605
▁start	-606
▁tak	-607
▁another	-608
av	-609
ial	-610
▁high	-611
iss	-612
▁long	-613
▁going	-614
▁exce	-615
ute	-616
▁same	-617
▁sub	-618
▁few	-619
▁war	-620
▁produ	-621
▁pret	-622
eric	-623
az	-624
▁tri	-625
ool	-626
oss	-627
iv	-628
▁rel	-629
ash	-630
erson	-631
▁ori	-632
▁got	-633
▁world	-634
▁director	-635
▁mar	-636
aw	-637
▁girl	-638
▁turn	-639
▁wo	-640
ience	-641
▁laugh	-642
▁cant	-643
▁diff	-644
▁supp	-645
▁thought	-646
ft	-647
▁own	-648
ub	-649
▁origin	-650
ason	-651
▁es	-652
▁sm	-653
cial	-654
▁friend	-655
▁app	-656
▁ind	-657
▁far	-658
▁hard	-659
▁ph	-660
ren	-661
ings	-662
ript	-663
▁comple	-664
▁inv	-665
ible	-666
▁things	-667
▁thats	-668
▁ed	-669
▁sin	-670
▁kid	-671
▁quite	-672
▁bu	-673
aut	-674
▁el	-675
▁pretty	-676
▁effect	-677
iting	-678
▁around	-679
▁right	-680
▁need	-681
▁seems	-682
▁cam	-683
ction	-684
▁ins	-685
▁horror	-686
▁wonder	-687
▁take	-688
ave	-689
▁acc	-690
▁screen	-691
ib	-692
▁enough	-693
▁both	-694
ced	-695
▁hel	-696
▁bas	-697
ways	-698
▁bit	-699
▁music	-700
▁must	-701
▁original	-702
▁script	-703
▁inst	-704
▁cra	-705
most	-706
ween	-707
▁give	-708
▁op	-709
▁kind	-710
ness	-711
ically	-712
▁person	-713
▁z	-714
▁between	-715
ately	-716
▁mom	-717
▁sex	-718
▁ive	-719
ster	-720
▁child	-721
▁however	-722
ug	-723
▁appe	-724
ention	-725
▁americ	-726
▁let	-727
▁saw	-728
▁beaut	-729
▁times	-730
▁come	-731
inem	-732
▁comedy	-733
▁put	-734
utes	-735
▁class	-736
▁without	-737
▁action	-738
ris	-739
▁isnt	-740
▁read	-741
▁sound	-742
▁always	-743
▁tell	-744
ks	-745
vious	-746
▁series	-747
▁interesting	-748
▁gets	-749
▁role	-750
▁cinem	-751
ock	-752
▁cons	-753
▁almost	-754
▁ep	-755
▁rev	-756
▁whole	-757
▁last	-758
ale	-759
lly	-760
ines	-761
▁lead	-762
▁guy	-763
▁least	-764
▁sch	-765
app	-766
icul	-767
ell	-768
▁cle	-769
▁hes	-770
ner	-771
▁shot	-772
erent	-773
▁sure	-774
▁hand	-775
▁might	-776
▁aud	-777
▁expect	-778
▁done	-779
▁theres	-780
ward	-781
▁worth	-782
llow	-783
▁ide	-784
▁care	-785
▁minutes	-786
ody	-787
▁family	-788
rible	-789
▁complete	-790
▁main	-791
raph	-792
ord	-793
▁expl	-794
ully	-795
hn	-796
▁book	-797
▁anything	-798
▁tv	-799
▁star	-800
▁prob	-801
▁call	-802
▁cour	-803
▁art	-804
ouse	-805
▁begin	-806
▁boy	-807
▁gl	-808
▁ca	-809
uring	-810
▁since	-811
▁bor	-812
ane	-813
▁entertain	-814
▁run	-815
▁probably	-816
stand	-817
▁performance	-818
▁help	-819
▁night	-820
▁ext	-821
▁rob	-822
ins	-823
▁mon	-824
xt	-825
▁pol	-826
als	-827
▁away	-828
ail	-829
▁add	-830
alog	-831
cially	-832
▁ste	-833
▁yet	-834
▁comm	-835
▁mat	-836
▁found	-837
ange	-838
ism	-839
▁our	-840
▁mean	-841
▁worst	-842
▁day	-843
ures	-844
▁rather	-845
▁sequ	-846
mend	-847
▁dialog	-848
io	-849
▁john	-850
▁poor	-851
istic	-852
▁super	-853
▁ty	-854
▁ac	-855
though	-856
▁abs	-857
▁each	-858
vd	-859
▁miss	-860
ign	-861
oney	-862
ative	-863
▁anyone	-864
aster	-865
ition	-866
▁pres	-867
▁cre	-868
▁reason	-869
uck	-870
▁woman	-871
▁played	-872
▁hal	-873
▁surp	-874
ject	-875
▁dvd	-876
▁keep	-877
pecially	-878
▁making	-879
cond	-880
led	-881
isod	-882
ime	-883
▁mind	-884
▁episod	-885
▁happen	-886
▁believe	-887
ling	-888
▁lik	-889
▁mur	-890
▁vers	-891
▁def	-892
ros	-893
fect	-894
wood	-895
osed	-896
▁gra	-897
▁shows	-898
▁trying	-899
ten	-900
era	-901
▁course	-902
▁different	-903
▁black	-904
▁job	-905
no	-906
ember	-907
▁port	-908
▁especially	-909
ms	-910
▁having	-911
ady	-912
ah	-913
▁short	-914
▁conf	-915
ead	-916
ates	-917
▁comes	-918
ograph	-919
▁goes	-920
ither	-921
ank	-922
▁second	-923
▁sk	-924
▁everything	-925
ingly	-926
umb	-927
▁rest	-928
▁less	-929
▁place	-930
ommend	-931
▁sense	-932
▁ending	-933
ife	-934
▁fan	-935
ues	-936
ics	-937
ments	-938
▁unf	-939
▁stand	-940
▁nor	-941
▁recommend	-942
▁proble	-943
ret	-944
▁dep	-945
▁creat	-946
oint	-947
▁although	-948
but	-949
hip	-950
▁looking	-951
gr	-952
empt	-953
▁certain	-954
▁half	-955
▁follow	-956
▁wasnt	-957
▁ey	-958
▁head	-959
▁looks	-960
▁three	-961
▁dram	-962
▁money	-963
iece	-964
lud	-965
▁bud	-966
▁low	-967
▁watched	-968
iful	-969
▁maybe	-970
iter	-971
▁once	-972
ilar	-973
arent	-974
▁actor	-975
▁effects	-976
▁sit	-977
▁perfect	-978
▁imag	-979
▁talk	-980
▁dra	-981
▁true	-982
▁death	-983
▁men	-984
▁sy	-985
▁toget	-986
▁vis	-987
ider	-988
▁together	-989
▁special	-990
aps	-991
ences	-992
▁poss	-993
son	-994
vent	-995
▁friends	-996
▁nice	-997
▁fav	-998
ality	-999
rist	-1000
▁someone	-1001
▁plays	-1002
▁cor	-1003
▁det	-1004
leas	-1005
▁eng	-1006
▁rom	-1007
▁ann	-1008
▁fall	-1009
▁year	-1010
itch	-1011
▁house	-1012
▁obvious	-1013
▁said	-1014
▁american	-1015
▁understand	-1016
▁pow	-1017
▁excell	-1018
▁review	-1019
▁sing	-1020
▁hu	-1021
way	-1022
▁mor	-1023
▁sus	-1024
▁ear	-1025
▁left	-1026
▁takes	-1027
land	-1028
▁during	-1029
ray	-1030
▁instead	-1031
▁later	-1032
▁ele	-1033
gg	-1034
ists	-1035
ames	-1036
▁home	-1037
▁everyone	-1038
▁himself	-1039
▁tot	-1040
▁beautiful	-1041
▁pa	-1042
ortun	-1043
▁par	-1044
▁audience	-1045
▁excellent	-1046
cing	-1047
▁dead	-1048
▁tal	-1049
▁simp	-1050
▁seeing	-1051
▁hour	-1052
▁else	-1053
▁version	-1054
sy	-1055
llywood	-1056
▁stup	-1057
▁ass	-1058
ited	-1059
▁came	-1060
▁exc	-1061
▁use	-1062
▁bar	-1063
atic	-1064
▁serious	-1065
ney	-1066
ier	-1067
▁dist	-1068
▁mem	-1069
▁rep	-1070
▁entire	-1071
▁dre	-1072
ional	-1073
ters	-1074
▁top	-1075
▁idea	-1076
▁stupid	-1077
▁form	-1078
ides	-1079
▁dan	-1080
ross	-1081
ix	-1082
▁ret	-1083
reak	-1084
ired	-1085
▁invol	-1086
dd	-1087
▁feat	-1088
▁har	-1089
▁hist	-1090
▁ref	-1091
▁unt	-1092
ains	-1093
▁cop	-1094
▁sad	-1095
▁defin	-1096
▁pict	-1097
▁stud	-1098
▁remember	-1099
▁anim	-1100
▁includ	-1101
▁tit	-1102
fully	-1103
▁exper	-1104
uff	-1105
▁along	-1106
▁bra	-1107
▁human	-1108
▁fight	-1109
▁lack	-1110
ird	-1111
my	-1112
▁count	-1113
▁wa	-1114
▁col	-1115
ets	-1116
▁vi	-1117
uth	-1118
▁youre	-1119
▁simply	-1120
▁exp	-1121
sc	-1122
vin	-1123
▁completely	-1124
ann	-1125
▁disapp	-1126
▁attempt	-1127
▁open	-1128
▁used	-1129
▁heart	-1130
▁beh	-1131
▁sty	-1132
▁wife	-1133
▁kids	-1134
▁ill	-1135
▁song	-1136
▁gener	-1137
▁disappoint	-1138
▁hope	-1139
▁wrong	-1140
▁dark	-1141
▁sw	-1142
▁loc	-1143
▁word	-1144
▁vide	-1145
olute	-1146
ott	-1147
▁full	-1148
▁hollywood	-1149
▁school	-1150
▁ra	-1151
ared	-1152
uly	-1153
▁mess	-1154
▁absolute	-1155
omb	-1156
cept	-1157
▁boring	-1158
▁either	-1159
ger	-1160
▁je	-1161
ract	-1162
arr	-1163
▁try	-1164
▁christ	-1165
▁ir	-1166
▁eas	-1167
▁emot	-1168
ied	-1169
▁supposed	-1170
day	-1171
▁pass	-1172
▁classic	-1173
▁line	-1174
▁vo	-1175
▁amaz	-1176
▁father	-1177
▁except	-1178
this	-1179
▁coll	-1180
▁small	-1181
not	-1182
ography	-1183
ton	-1184
ond	-1185
▁given	-1186
▁ok	-1187
lease	-1188
▁hero	-1189
▁surpris	-1190
▁performances	-1191
▁dou	-1192
▁production	-1193
▁fail	-1194
eth	-1195
▁particul	-1196
▁until	-1197
▁conc	-1198
▁truly	-1199
ps	-1200
▁exam	-1201
illi	-1202
▁jack	-1203
itten	-1204
idd	-1205
▁couple	-1206
▁next	-1207
▁bat	-1208
▁sort	-1209
▁murder	-1210
▁awful	-1211
▁consider	-1212
ote	-1213
▁viol	-1214
▁sho	-1215
▁reg	-1216
▁dri	-1217
▁nat	-1218
ru	-1219
▁women	-1220
▁blood	-1221
▁red	-1222
▁mr	-1223
▁favor	-1224
▁budget	-1225
▁name	-1226
aring	-1227
ently	-1228
▁becom	-1229
▁sat	-1230
▁humor	-1231
▁cred	-1232
air	-1233
▁sever	-1234
▁master	-1235
▁getting	-1236
ork	-1237
haps	-1238
vo	-1239
▁flick	-1240
itely	-1241
▁terrible	-1242
▁others	-1243
elt	-1244
▁portray	-1245
▁power	-1246
▁pain	-1247
amp	-1248
▁moments	-1249
▁walk	-1250
▁sn	-1251
sel	-1252
arn	-1253
kes	-1254
ount	-1255
cy	-1256
lish	-1257
tle	-1258
ities	-1259
▁ge	-1260
▁camera	-1261
▁light	-1262
ted	-1263
▁itself	-1264
▁slow	-1265
ize	-1266
▁cut	-1267
velop	-1268
▁rich	-1269
cus	-1270
▁wonderful	-1271
▁god	-1272
oles	-1273
▁spo	-1274
▁video	-1275
iness	-1276
que	-1277
▁guess	-1278
▁mich	-1279
▁stre	-1280
▁gre	-1281
▁playing	-1282
ility	-1283
▁face	-1284
▁cur	-1285
▁live	-1286
▁perhaps	-1287
med	-1288
like	-1289
▁episode	-1290
enn	-1291
▁doing	-1292
▁stars	-1293
ows	-1294
▁talent	-1295
vis	-1296
▁brilli	-1297
▁capt	-1298
▁often	-1299
▁children	-1300
ief	-1301
▁case	-1302
▁lines	-1303
cess	-1304
▁gives	-1305
▁early	-1306
cum	-1307
olog	-1308
▁couldnt	-1309
unch	-1310
▁went	-1311
mak	-1312
reme	-1313
▁desp	-1314
▁definitely	-1315
▁dialogue	-1316
▁mother	-1317
what	-1318
▁cent	-1319
▁rid	-1320
▁guys	-1321
▁pat	-1322
ories	-1323
▁trans	-1324
ident	-1325
▁piece	-1326
▁yes	-1327
▁fant	-1328
▁absolutely	-1329
▁quest	-1330
ined	-1331
▁rent	-1332
▁pred	-1333
▁impress	-1334
com	-1335
▁val	-1336
ern	-1337
tern	-1338
▁liked	-1339
▁certainly	-1340
ony	-1341
▁strong	-1342
▁develop	-1343
▁mis	-1344
▁become	-1345
▁cost	-1346
▁actress	-1347
ured	-1348
▁entertaining	-1349
body	-1350
▁lost	-1351
ams	-1352
▁mag	-1353
ized	-1354
▁loved	-1355
▁uni	-1356
▁style	-1357
illy	-1358
ibly	-1359
▁picture	-1360
▁dav	-1361
ush	-1362
▁problem	-1363
▁worse	-1364
▁felt	-1365
▁mention	-1366
ming	-1367
▁oh	-1368
▁brilliant	-1369
▁deli	-1370
▁pur	-1371
right	-1372
ael	-1373
▁several	-1374
▁extreme	-1375
▁relations	-1376
ery	-1377
▁beginning	-1378
ho	-1379
ouch	-1380
▁side	-1381
▁written	-1382
▁title	-1383
▁close	-1384
▁sou	-1385
▁unfortun	-1386
▁pop	-1387
line	-1388
▁waste	-1389
▁cinema	-1390
▁against	-1391
▁succ	-1392
▁finally	-1393
▁adm	-1394
▁past	-1395
mer	-1396
imes	-1397
ided	-1398
ones	-1399
▁thrill	-1400
▁dem	-1401
▁hon	-1402
by	-1403
ular	-1404
▁totally	-1405
▁shes	-1406
▁town	-1407
▁fans	-1408
▁wanted	-1409
▁fair	-1410
ready	-1411
ison	-1412
▁seemed	-1413
▁win	-1414
play	-1415
▁evil	-1416
▁based	-1417
▁lives	-1418
▁son	-1419
▁game	-1420
▁et	-1421
unt	-1422
selves	-1423
▁direction	-1424
pped	-1425
▁hell	-1426
▁stra	-1427
▁example	-1428
▁already	-1429
▁inf	-1430
▁white	-1431
▁med	-1432
sych	-1433
▁support	-1434
▁pet	-1435
▁wont	-1436
▁final	-1437
ards	-1438
king	-1439
▁lar	-1440
▁becomes	-1441
▁relationship	-1442
ric	-1443
▁throughout	-1444
▁success	-1445
riend	-1446
▁list	-1447
▁days	-1448
ley	-1449
▁hit	-1450
▁vill	-1451
▁psych	-1452
▁rock	-1453
▁youll	-1454
▁called	-1455
▁filmmak	-1456
vable	-1457
▁wood	-1458
▁drama	-1459
ages	-1460
gu	-1461
▁vict	-1462
▁able	-1463
▁deal	-1464
rif	-1465
amed	-1466
▁fine	-1467
▁history	-1468
▁stuff	-1469
light	-1470
lling	-1471
ler	-1472
▁girls	-1473
▁spoil	-1474
▁myster	-1475
yn	-1476
ts	-1477
▁crit	-1478
▁num	-1479
▁wants	-1480
aughter	-1481
▁quality	-1482
▁susp	-1483
▁grou	-1484
ged	-1485
unk	-1486
▁comment	-1487
▁deser	-1488
ape	-1489
▁michael	-1490
▁self	-1491
▁tre	-1492
▁touch	-1493
▁amazing	-1494
▁occ	-1495
▁horrible	-1496
▁mad	-1497
▁ones	-1498
how	-1499
▁pick	-1500
▁maj	-1501
▁works	-1502
▁fem	-1503
▁writing	-1504
▁despite	-1505
▁foot	-1506
▁break	-1507
ats	-1508
▁aff	-1509
▁sec	-1510
▁killer	-1511
▁annoy	-1512
▁robert	-1513
▁matter	-1514
▁mark	-1515
▁prom	-1516
ots	-1517
▁teen	-1518
▁theyre	-1519
▁present	-1520
ew	-1521
ient	-1522
ien	-1523
▁import	-1524
yp	-1525
▁prof	-1526
▁situ	-1527
▁fore	-1528
bo	-1529
▁dev	-1530
▁docum	-1531
▁wish	-1532
▁cult	-1533
▁eyes	-1534
▁tries	-1535
▁la	-1536
▁ant	-1537
▁stop	-1538
▁hilar	-1539
▁enjoyed	-1540
▁ger	-1541
▁turns	-1542
orge	-1543
orn	-1544
▁sol	-1545
▁gave	-1546
▁behind	-1547
▁mot	-1548
▁soon	-1549
▁parts	-1550
ination	-1551
where	-1552
▁learn	-1553
▁unfortunately	-1554
ister	-1555
rib	-1556
▁incred	-1557
ung	-1558
cent	-1559
▁tom	-1560
used	-1561
▁contin	-1562
etic	-1563
▁lea	-1564
▁appear	-1565
▁sle	-1566
▁exact	-1567
▁favorite	-1568
▁city	-1569
▁document	-1570
ude	-1571
▁novel	-1572
ese	-1573
▁typ	-1574
▁gar	-1575
▁apparent	-1576
▁opp	-1577
▁moment	-1578
chn	-1579
▁swe	-1580
▁themselves	-1581
▁bro	-1582
▁level	-1583
▁major	-1584
▁fig	-1585
▁killed	-1586
itive	-1587
▁myself	-1588
▁inde	-1589
▁return	-1590
▁starts	-1591
▁viewer	-1592
iet	-1593
▁genre	-1594
▁bus	-1595
ik	-1596
▁group	-1597
ific	-1598
▁obviously	-1599
ered	-1600
▁thinking	-1601
▁tele	-1602
▁late	-1603
▁sometimes	-1604
▁const	-1605
leased	-1606
▁none	-1607
▁overall	-1608
▁hilarious	-1609
▁speak	-1610
▁gun	-1611
antly	-1612
▁cinemat	-1613
▁says	-1614
▁etc	-1615
▁intell	-1616
▁chang	-1617
▁decent	-1618
ax	-1619
▁voice	-1620
astic	-1621
▁four	-1622
▁air	-1623
▁event	-1624
▁mil	-1625
▁pri	-1626
akes	-1627
▁cool	-1628
▁ridicul	-1629
▁directed	-1630
ried	-1631
▁bur	-1632
▁effort	-1633
▁took	-1634
lic	-1635
▁plan	-1636
▁happens	-1637
▁cho	-1638
▁heard	-1639
band	-1640
using	-1641
▁feeling	-1642
cks	-1643
▁bab	-1644
▁hus	-1645
▁highly	-1646
▁hold	-1647
▁ben	-1648
▁brit	-1649
ering	-1650
▁room	-1651
ump	-1652
ural	-1653
ring	-1654
ians	-1655
ior	-1656
nds	-1657
▁ve	-1658
▁type	-1659
▁hot	-1660
▁age	-1661
▁dog	-1662
▁esc	-1663
▁experience	-1664
▁techn	-1665
▁coming	-1666
▁strange	-1667
▁var	-1668
▁clich	-1669
▁shock	-1670
▁ridiculous	-1671
els	-1672
▁leave	-1673
▁predict	-1674
▁shoot	-1675
▁deep	-1676
▁cheap	-1677
▁extremely	-1678
▁order	-1679
▁convin	-1680
▁told	-1681
▁stories	-1682
nded	-1683
▁daughter	-1684
▁lu	-1685
▁wouldnt	-1686
▁unc	-1687
▁police	-1688
▁chance	-1689
tra	-1690
▁score	-1691
▁disco	-1692
▁stay	-1693
▁involved	-1694
▁cannot	-1695
▁simple	-1696
▁living	-1697
▁opin	-1698
▁roles	-1699
any	-1700
▁bring	-1701
▁sil	-1702
ether	-1703
rench	-1704
▁land	-1705
▁quick	-1706
▁husband	-1707
▁mill	-1708
▁camp	-1709
▁country	-1710
▁crap	-1711
▁prov	-1712
ls	-1713
antic	-1714
▁move	-1715
zy	-1716
▁zomb	-1717
▁weak	-1718
▁looked	-1719
ives	-1720
▁wes	-1721
▁violence	-1722
▁happened	-1723
▁musical	-1724
▁result	-1725
ove	-1726
▁pay	-1727
▁pos	-1728
▁ten	-1729
▁david	-1730
br	-1731
▁save	-1732
▁honest	-1733
▁huge	-1734
▁english	-1735
▁particularly	-1736
eless	-1737
▁frank	-1738
ator	-1739
anger	-1740
▁polit	-1741
▁including	-1742
gan	-1743
use	-1744
lin	-1745
iddle	-1746
▁sym	-1747
▁shown	-1748
▁er	-1749
▁james	-1750
▁rating	-1751
▁taken	-1752
arch	-1753
owing	-1754
▁forget	-1755
▁sum	-1756
▁fut	-1757
▁gore	-1758
ement	-1759
▁pot	-1760
ances	-1761
▁brother	-1762
rop	-1763
▁subject	-1764
cer	-1765
▁ago	-1766
▁reality	-1767
▁body	-1768
▁mel	-1769
ational	-1770
▁dest	-1771
▁prem	-1772
▁non	-1773
▁step	-1774
rodu	-1775
▁prot	-1776
vision	-1777
▁met	-1778
▁across	-1779
ution	-1780
▁known	-1781
aged	-1782
▁mart	-1783
▁phot	-1784
▁check	-1785
oon	-1786
▁moder	-1787
▁dam	-1788
▁number	-1789
▁released	-1790
▁exactly	-1791
urb	-1792
▁doub	-1793
▁jokes	-1794
ma	-1795
iety	-1796
▁opening	-1797
▁lou	-1798
▁saying	-1799
▁today	-1800
ield	-1801
▁career	-1802
▁wee	-1803
ino	-1804
▁sold	-1805
▁hours	-1806
▁possible	-1807
iff	-1808
▁cinematography	-1809
ett	-1810
▁anyway	-1811
▁usually	-1812
▁seriously	-1813
itting	-1814
ground	-1815
▁alone	-1816
ral	-1817
▁yourself	-1818
form	-1819
▁annoying	-1820
▁pull	-1821
▁build	-1822
▁suspense	-1823
▁writer	-1824
▁earth	-1825
▁space	-1826
uss	-1827
▁sor	-1828
▁middle	-1829
▁treat	-1830
pping	-1831
▁similar	-1832
wards	-1833
▁documentary	-1834
ival	-1835
▁cart	-1836
▁focus	-1837
▁whose	-1838
▁running	-1839
▁straight	-1840
▁shots	-1841
▁sam	-1842
ec	-1843
▁fill	-1844
side	-1845
▁lets	-1846
▁desc	-1847
▁ul	-1848
bs	-1849
▁ut	-1850
▁ends	-1851
ball	-1852
▁bey	-1853
bel	-1854
▁parent	-1855
▁among	-1856
▁opinion	-1857
▁please	-1858
▁started	-1859
ethe	-1860
▁mist	-1861
▁die	-1862
▁gang	-1863
▁narr	-1864
▁change	-1865
▁german	-1866
▁ang	-1867
▁near	-1868
▁hop	-1869
ili	-1870
iction	-1871
ther	-1872
▁gold	-1873
▁spir	-1874
old	-1875
ants	-1876
▁usual	-1877
▁ask	-1878
▁female	-1879
▁meet	-1880
▁sent	-1881
ex	-1882
▁important	-1883
▁single	-1884
dy	-1885
▁apart	-1886
▁somewhat	-1887
ential	-1888
▁silly	-1889
▁knows	-1890
▁beyond	-1891
▁knew	-1892
▁scary	-1893
▁taking	-1894
enty	-1895
ury	-1896
▁mostly	-1897
ires	-1898
▁local	-1899
▁disappointed	-1900
mos	-1901
▁suff	-1902
▁words	-1903
▁drug	-1904
▁secret	-1905
▁jud	-1906
void	-1907
▁odd	-1908
apt	-1909
▁detail	-1910
▁happy	-1911
▁law	-1912
▁turned	-1913
▁emb	-1914
▁finds	-1915
▁soc	-1916
▁box	-1917
▁due	-1918
▁attention	-1919
▁bill	-1920
▁willi	-1921
▁directors	-1922
ald	-1923
ugg	-1924
▁remind	-1925
▁osc	-1926
off	-1927
▁jap	-1928
ital	-1929
oof	-1930
rise	-1931
▁hands	-1932
▁equ	-1933
▁talking	-1934
▁pub	-1935
▁cover	-1936
ky	-1937
▁modern	-1938
▁episodes	-1939
▁contro	-1940
▁problems	-1941
▁king	-1942
▁paul	-1943
▁french	-1944
gy	-1945
key	-1946
wise	-1947
▁don	-1948
▁upon	-1949
▁apparently	-1950
sh	-1951
▁television	-1952
▁ru	-1953
eng	-1954
▁appre	-1955
▁compl	-1956
▁pleas	-1957
▁respect	-1958
nding	-1959
▁western	-1960
ised	-1961
▁clearly	-1962
▁fast	-1963
gn	-1964
▁arent	-1965
to	-1966
▁team	-1967
aced	-1968
cl	-1969
▁atmos	-1970
▁creep	-1971
▁sign	-1972
▁theat	-1973
sthe	-1974
ished	-1975
▁forg	-1976
▁british	-1977
▁intellig	-1978
▁basically	-1979
ices	-1980
▁fre	-1981
▁mer	-1982
▁dull	-1983
▁events	-1984
orable	-1985
▁grand	-1986
▁japan	-1987
ike	-1988
▁vir	-1989
▁sequence	-1990
▁soundtra	-1991
▁conn	-1992
▁hate	-1993
▁fur	-1994
ubb	-1995
back	-1996
ained	-1997
▁tells	-1998
▁romantic	-1999
ey	-2000
▁previous	-2001
▁cat	-2002
▁mater	-2003
usion	-2004
▁path	-2005
aim	-2006
go	-2007
▁question	-2008
▁songs	-2009
▁predictable	-2010
▁post	-2011
▁wind	-2012
ina	-2013
otic	-2014
ection	-2015
▁whats	-2016
▁twist	-2017
▁clear	-2018
▁comic	-2019
rit	-2020
▁future	-2021
iod	-2022
▁entertainment	-2023
▁sets	-2024
asons	-2025
▁van	-2026
▁easily	-2027
▁eye	-2028
▁above	-2029
▁soundtrack	-2030
▁doct	-2031
de	-2032
▁enjoyable	-2033
▁appears	-2034
▁appreci	-2035
▁havent	-2036
▁whether	-2037
▁trou	-2038
▁attack	-2039
▁viewers	-2040
▁aspect	-2041
▁surv	-2042
▁du	-2043
tim	-2044
▁five	-2045
arely	-2046
▁giving	-2047
▁material	-2048
▁visual	-2049
▁lots	-2050
▁norm	-2051
▁doubt	-2052
▁supporting	-2053
▁bunch	-2054
▁sexual	-2055
oun	-2056
▁adult	-2057
▁falls	-2058
▁sequel	-2059
▁feature	-2060
▁needs	-2061
▁message	-2062
▁victim	-2063
▁flaw	-2064
▁thriller	-2065
▁adv	-2066
▁los	-2067
▁surprised	-2068
▁easy	-2069
ension	-2070
▁ri	-2071
▁slight	-2072
path	-2073
others	-2074
▁george	-2075
▁free	-2076
▁period	-2077
▁water	-2078
▁moving	-2079
▁unlike	-2080
▁parents	-2081
▁fire	-2082
▁ways	-2083
▁showing	-2084
▁accept	-2085
na	-2086
▁ham	-2087
▁vamp	-2088
▁avoid	-2089
▁within	-2090
▁lat	-2091
▁cry	-2092
▁storyline	-2093
oc	-2094
asc	-2095
▁cap	-2096
▁tried	-2097
▁exist	-2098
▁filmed	-2099
▁superb	-2100
head	-2101
▁adapt	-2102
▁truth	-2103
▁theater	-2104
▁dream	-2105
▁writ	-2106
▁richard	-2107
▁means	-2108
▁theme	-2109
▁train	-2110
▁buy	-2111
sw	-2112
▁reve	-2113
▁personal	-2114
▁inno	-2115
▁sugg	-2116
ening	-2117
▁flash	-2118
▁suggest	-2119
gs	-2120
▁setting	-2121
▁named	-2122
▁mc	-2123
▁express	-2124
▁monster	-2125
aught	-2126
▁release	-2127
iest	-2128
▁insp	-2129
▁sens	-2130
▁actual	-2131
view	-2132
▁working	-2133
▁large	-2134
dden	-2135
icks	-2136
▁ital	-2137
ov	-2138
▁dumb	-2139
▁park	-2140
▁wait	-2141
ges	-2142
bers	-2143
▁tar	-2144
icult	-2145
ifi	-2146
ental	-2147
▁comb	-2148
▁hall	-2149
▁iss	-2150
▁stri	-2151
▁feels	-2152
▁gone	-2153
▁kept	-2154
▁comments	-2155
▁jul	-2156
▁hom	-2157
▁weird	-2158
▁typical	-2159
▁lady	-2160
▁using	-2161
▁sister	-2162
rated	-2163
▁wild	-2164
▁sorry	-2165
▁greatest	-2166
▁den	-2167
▁elements	-2168
▁match	-2169
oose	-2170
ron	-2171
▁general	-2172
▁famous	-2173
▁nearly	-2174
▁editing	-2175
▁difficult	-2176
▁oper	-2177
▁tale	-2178
▁fantastic	-2179
bert	-2180
▁front	-2181
▁realistic	-2182
▁hear	-2183
▁teach	-2184
▁mystery	-2185
▁lim	-2186
▁points	-2187
▁herself	-2188
▁viewing	-2189
▁decided	-2190
ope	-2191
▁av	-2192
gic	-2193
▁ultim	-2194
over	-2195
▁boys	-2196
▁ver	-2197
ram	-2198
ceed	-2199
imin	-2200
▁advent	-2201
▁fly	-2202
▁da	-2203
ially	-2204
▁band	-2205
ppy	-2206
▁brought	-2207
▁meaning	-2208
▁minute	-2209
▁profess	-2210
▁introdu	-2211
▁season	-2212
iences	-2213
▁pure	-2214
▁ange	-2215
▁rad	-2216
▁oscar	-2217
▁mix	-2218
▁leads	-2219
▁sudden	-2220
▁cal	-2221
▁imagine	-2222
▁project	-2223
▁jim	-2224
▁believable	-2225
▁chees	-2226
▁deliver	-2227
asy	-2228
▁obs	-2229
▁youve	-2230
▁masterp	-2231
▁shame	-2232
▁begins	-2233
▁peter	-2234
▁reviews	-2235
▁business	-2236
ising	-2237
verage	-2238
▁catch	-2239
omin	-2240
let	-2241
sem	-2242
▁auth	-2243
▁york	-2244
uc	-2245
▁utter	-2246
▁somehow	-2247
bl	-2248
▁mid	-2249
omp	-2250
phere	-2251
▁aust	-2252
▁clim	-2253
real	-2254
▁animation	-2255
▁background	-2256
▁figure	-2257
▁liter	-2258
▁crime	-2259
aling	-2260
there	-2261
▁sequences	-2262
▁lang	-2263
▁imd	-2264
atever	-2265
▁crew	-2266
▁okay	-2267
▁expected	-2268
while	-2269
▁surprise	-2270
▁gay	-2271
▁island	-2272
▁premise	-2273
con	-2274
▁particular	-2275
▁prin	-2276
▁whos	-2277
▁wall	-2278
▁killing	-2279
▁third	-2280
▁exec	-2281
▁situation	-2282
▁hur	-2283
▁mass	-2284
▁atmosphere	-2285
ob	-2286
▁lame	-2287
▁poorly	-2288
ously	-2289
▁resp	-2290
▁tast	-2291
▁clever	-2292
▁prison	-2293
▁rand	-2294
ressed	-2295
▁jer	-2296
▁wit	-2297
▁indeed	-2298
▁stere	-2299
▁eventually	-2300
lfriend	-2301
een	-2302
ively	-2303
▁street	-2304
▁battle	-2305
▁society	-2306
▁dance	-2307
▁refer	-2308
▁hy	-2309
▁sick	-2310
▁male	-2311
▁average	-2312
▁eur	-2313
fer	-2314
ius	-2315
▁imdb	-2316
▁bother	-2317
▁leaves	-2318
▁south	-2319
▁stage	-2320
well	-2321
▁whatever	-2322
▁emotional	-2323
▁appro	-2324
▁heav	-2325
▁bre	-2326
▁jour	-2327
ogn	-2328
▁became	-2329
▁scifi	-2330
▁forced	-2331
▁needed	-2332
▁public	-2333
▁possibly	-2334
▁inte	-2335
▁bored	-2336
cers	-2337
▁clos	-2338
▁fran	-2339
▁bull	-2340
▁commun	-2341
▁footage	-2342
cious	-2343
▁earli	-2344
▁sleep	-2345
▁doctor	-2346
▁strugg	-2347
▁memorable	-2348
▁lif	-2349
▁note	-2350
▁pu	-2351
▁copy	-2352
▁credits	-2353
mas	-2354
▁bed	-2355
▁beat	-2356
▁allow	-2357
▁costum	-2358
▁writers	-2359
▁mach	-2360
▁mod	-2361
▁revol	-2362
▁write	-2363
of	-2364
ana	-2365
▁romance	-2366
▁emotion	-2367
▁total	-2368
▁est	-2369
ips	-2370
▁reading	-2371
ara	-2372
ned	-2373
rific	-2374
▁beauty	-2375
▁cir	-2376
▁spirit	-2377
▁stereot	-2378
row	-2379
▁fu	-2380
▁flat	-2381
▁features	-2382
ager	-2383
▁uns	-2384
▁filmmakers	-2385
ula	-2386
▁cheesy	-2387
▁nature	-2388
▁perfectly	-2389
▁interested	-2390
▁unique	-2391
▁screenplay	-2392
here	-2393
more	-2394
▁meets	-2395
pend	-2396
▁und	-2397
▁girlfriend	-2398
▁whom	-2399
ze	-2400
ises	-2401
▁badly	-2402
▁discover	-2403
▁otherwise	-2404
▁enc	-2405
▁histor	-2406
▁lee	-2407
host	-2408
▁tur	-2409
▁ach	-2410
▁colle	-2411
▁meant	-2412
▁quickly	-2413
▁hol	-2414
▁laughs	-2415
wr	-2416
ived	-2417
▁keeps	-2418
agon	-2419
▁inside	-2420
ries	-2421
▁phil	-2422
▁baby	-2423
ths	-2424
▁unless	-2425
▁further	-2426
iel	-2427
▁masterpiece	-2428
olf	-2429
▁forward	-2430
iliar	-2431
por	-2432
▁disturb	-2433
▁repe	-2434
▁concept	-2435
▁doll	-2436
▁plus	-2437
▁crazy	-2438
▁thank	-2439
▁explo	-2440
▁ble	-2441
▁fasc	-2442
▁japanese	-2443
▁incredibly	-2444
isf	-2445
▁ghost	-2446
▁sounds	-2447
▁towards	-2448
▁cru	-2449
▁worked	-2450
▁scott	-2451
▁earlier	-2452
▁les	-2453
▁villain	-2454
▁popular	-2455
▁trad	-2456
▁amount	-2457
▁answ	-2458
▁realize	-2459
▁luck	-2460
bor	-2461
▁occas	-2462
▁extra	-2463
▁stat	-2464
af	-2465
▁cond	-2466
▁hair	-2467
▁purp	-2468
▁cas	-2469
▁sal	-2470
wor	-2471
friend	-2472
▁older	-2473
lu	-2474
thy	-2475
aces	-2476
▁ale	-2477
▁america	-2478
▁various	-2479
▁offic	-2480
▁cartoon	-2481
▁scient	-2482
▁recogn	-2483
▁trash	-2484
uct	-2485
aked	-2486
▁brings	-2487
▁agree	-2488
hood	-2489
▁development	-2490
▁fat	-2491
▁pers	-2492
▁plenty	-2493
▁pal	-2494
▁powerful	-2495
▁sand	-2496
▁plain	-2497
rest	-2498
▁prop	-2499
▁following	-2500
▁creepy	-2501
▁admit	-2502
▁directing	-2503
▁trail	-2504
gest	-2505
▁charl	-2506
▁brain	-2507
▁acted	-2508
▁ball	-2509
▁invest	-2510
▁fairly	-2511
▁joe	-2512
cessary	-2513
lect	-2514
▁dramatic	-2515
▁imm	-2516
▁ident	-2517
iers	-2518
▁design	-2519
urs	-2520
▁sweet	-2521
kn	-2522
▁portrayed	-2523
sters	-2524
▁leading	-2525
▁spent	-2526
▁remake	-2527
vern	-2528
▁langu	-2529
▁attract	-2530
▁ess	-2531
▁phys	-2532
▁chann	-2533
▁neg	-2534
▁wasted	-2535
▁reasons	-2536
▁ast	-2537
boy	-2538
ills	-2539
▁joke	-2540
▁alien	-2541
cre	-2542
pper	-2543
work	-2544
▁fails	-2545
▁green	-2546
▁deserves	-2547
zz	-2548
▁mir	-2549
▁nud	-2550
itty	-2551
▁ber	-2552
ken	-2553
▁cow	-2554
▁political	-2555
par	-2556
belie	-2557
itted	-2558
▁russ	-2559
ee	-2560
▁fit	-2561
▁ideas	-2562
▁suck	-2563
▁hitch	-2564
ades	-2565
▁party	-2566
▁record	-2567
▁outside	-2568
▁danger	-2569
rupt	-2570
▁destro	-2571
▁attempts	-2572
▁missing	-2573
▁william	-2574
▁manages	-2575
▁expecting	-2576
emy	-2577
acing	-2578
arre	-2579
▁color	-2580
▁cross	-2581
▁disney	-2582
▁brothers	-2583
▁fighting	-2584
▁create	-2585
▁social	-2586
▁recently	-2587
▁caught	-2588
▁escape	-2589
▁zombie	-2590
▁members	-2591
▁cold	-2592
unning	-2593
▁sympath	-2594
ivid	-2595
action	-2596
▁travel	-2597
▁familiar	-2598
▁sto	-2599
▁hardly	-2600
▁accident	-2601
▁requ	-2602
orm	-2603
▁dad	-2604
▁pie	-2605
▁subtle	-2606
ased	-2607
▁road	-2608
bb	-2609
resh	-2610
▁terror	-2611
▁explain	-2612
▁cute	-2613
▁common	-2614
▁ended	-2615
▁relig	-2616
▁biz	-2617
inary	-2618
ai	-2619
▁desper	-2620
▁laughing	-2621
▁roll	-2622
▁positive	-2623
▁potential	-2624
medi	-2625
▁funn	-2626
▁brief	-2627
▁amb	-2628
▁talented	-2629
ites	-2630
▁embarr	-2631
▁news	-2632
▁achie	-2633
▁impro	-2634
lo	-2635
▁sun	-2636
▁fest	-2637
fort	-2638
men	-2639
▁tort	-2640
time	-2641
▁stick	-2642
▁search	-2643
▁embarrass	-2644
ding	-2645
▁telling	-2646
▁fantasy	-2647
iny	-2648
ishing	-2649
▁immedi	-2650
ios	-2651
▁fear	-2652
▁nudity	-2653
rent	-2654
izing	-2655
▁missed	-2656
▁regard	-2657
ology	-2658
▁pace	-2659
▁claim	-2660
▁burn	-2661
▁married	-2662
▁din	-2663
ero	-2664
ague	-2665
▁bott	-2666
▁mans	-2667
▁created	-2668
▁italian	-2669
▁stereotyp	-2670
▁reach	-2671
▁intri	-2672
▁waiting	-2673
▁casting	-2674
▁former	-2675
▁complex	-2676
ective	-2677
▁credit	-2678
▁ur	-2679
▁arri	-2680
▁broad	-2681
▁state	-2682
▁incredible	-2683
aking	-2684
istry	-2685
▁gri	-2686
▁lab	-2687
▁sees	-2688
▁approach	-2689
▁slightly	-2690
▁died	-2691
▁cause	-2692
gi	-2693
irect	-2694
▁science	-2695
rap	-2696
▁garb	-2697
▁era	-2698
▁mas	-2699
▁unbelie	-2700
esome	-2701
▁glad	-2702
▁demon	-2703
▁forgot	-2704
▁intern	-2705
▁delight	-2706
▁ine	-2707
aging	-2708
▁chem	-2709
▁europe	-2710
▁conv	-2711
str	-2712
▁draw	-2713
▁store	-2714
acy	-2715
▁rece	-2716
▁company	-2717
▁uses	-2718
▁tension	-2719
▁mentioned	-2720
rage	-2721
▁genu	-2722
ha	-2723
▁force	-2724
▁scream	-2725
▁decides	-2726
▁entirely	-2727
▁considering	-2728
▁hen	-2729
ibility	-2730
▁pointless	-2731
imp	-2732
▁rap	-2733
▁convincing	-2734
▁trouble	-2735
lict	-2736
▁ground	-2737
▁ted	-2738
▁lege	-2739
▁accent	-2740
venge	-2741
uses	-2742
▁fol	-2743
▁squ	-2744
eem	-2745
▁ce	-2746
▁imposs	-2747
▁mere	-2748
▁produced	-2749
lusion	-2750
▁track	-2751
▁wrote	-2752
▁govern	-2753
cast	-2754
▁solid	-2755
▁bizarre	-2756
▁follows	-2757
▁mac	-2758
itation	-2759
▁remark	-2760
▁ran	-2761
▁audiences	-2762
gress	-2763
▁contr	-2764
▁genuine	-2765
▁appreciate	-2766
ilt	-2767
uit	-2768
▁comput	-2769
▁office	-2770
▁portrayal	-2771
look	-2772
ches	-2773
▁century	-2774
▁neither	-2775
▁bomb	-2776
erv	-2777
iced	-2778
▁producers	-2779
mov	-2780
▁mal	-2781
▁pen	-2782
▁test	-2783
▁compared	-2784
▁value	-2785
▁suddenly	-2786
▁jump	-2787
▁rate	-2788
▁moves	-2789
▁tough	-2790
ashion	-2791
uted	-2792
▁ram	-2793
▁alive	-2794
▁differ	-2795
▁images	-2796
▁biggest	-2797
▁younger	-2798
iment	-2799
▁camer	-2800
▁six	-2801
▁dancing	-2802
▁language	-2803
▁sadly	-2804
▁suspect	-2805
▁intelligent	-2806
ares	-2807
▁choice	-2808
▁jane	-2809
▁college	-2810
▁haunt	-2811
▁x	-2812
irty	-2813
▁west	-2814
▁flo	-2815
▁fred	-2816
▁depict	-2817
ds	-2818
▁breat	-2819
▁genius	-2820
▁exciting	-2821
ened	-2822
idden	-2823
▁violent	-2824
att	-2825
▁ray	-2826
▁brut	-2827
▁satisf	-2828
▁amusing	-2829
▁successful	-2830
min	-2831
▁christmas	-2832
▁situations	-2833
▁mood	-2834
▁compet	-2835
▁week	-2836
▁critic	-2837
▁idi	-2838
▁jew	-2839
▁humour	-2840
▁longer	-2841
▁product	-2842
inc	-2843
▁smo	-2844
▁progr	-2845
▁mont	-2846
▁awesome	-2847
▁pathetic	-2848
▁kills	-2849
▁spend	-2850
oph	-2851
▁decide	-2852
▁filled	-2853
▁continu	-2854
▁magn	-2855
▁recent	-2856
▁arg	-2857
▁basic	-2858
▁likes	-2859
▁interview	-2860
▁bes	-2861
▁minor	-2862
ribly	-2863
▁fake	-2864
▁depth	-2865
standing	-2866
▁disg	-2867
▁channel	-2868
come	-2869
▁crimin	-2870
▁spoilers	-2871
▁books	-2872
▁effective	-2873
▁questions	-2874
▁blue	-2875
▁carry	-2876
▁inform	-2877
▁manner	-2878
▁purpose	-2879
sequ	-2880
▁faith	-2881
▁fascin	-2882
▁werent	-2883
▁recommended	-2884
▁fort	-2885
ization	-2886
rew	-2887
▁barely	-2888
ndon	-2889
▁trip	-2890
uster	-2891
▁smart	-2892
▁values	-2893
▁changed	-2894
▁control	-2895
▁singing	-2896
▁impossible	-2897
arily	-2898
▁drag	-2899
▁yeah	-2900
iring	-2901
▁spect	-2902
▁impressive	-2903
▁cand	-2904
▁hang	-2905
▁kick	-2906
▁pack	-2907
known	-2908
▁repres	-2909
sey	-2910
appe	-2911
ders	-2912
▁amate	-2913
▁ii	-2914
itary	-2915
▁concern	-2916
▁revenge	-2917
▁soldiers	-2918
▁involving	-2919
▁compe	-2920
▁taste	-2921
▁showed	-2922
▁wal	-2923
▁assum	-2924
▁mary	-2925
▁natural	-2926
▁hos	-2927
▁leg	-2928
▁indian	-2929
▁opportun	-2930
▁fool	-2931
▁alex	-2932
▁gag	-2933
▁avail	-2934
▁studio	-2935
▁afric	-2936
▁normal	-2937
cif	-2938
wart	-2939
▁garbage	-2940
▁repl	-2941
▁leaving	-2942
▁ultimately	-2943
ene	-2944
▁culture	-2945
▁suit	-2946
▁throw	-2947
▁chemistry	-2948
▁porn	-2949
▁tun	-2950
▁failed	-2951
rel	-2952
ensive	-2953
▁pictures	-2954
▁immediately	-2955
▁door	-2956
mon	-2957
▁gem	-2958
▁sher	-2959
ological	-2960
▁sar	-2961
▁literally	-2962
▁disturbing	-2963
asher	-2964
▁bought	-2965
room	-2966
▁prep	-2967
▁magic	-2968
▁vampire	-2969
▁thanks	-2970
▁lad	-2971
▁suc	-2972
▁somewhere	-2973
▁considered	-2974
▁legend	-2975
▁bi	-2976
▁random	-2977
▁shooting	-2978
xic	-2979
▁heavy	-2980
oop	-2981
▁mou	-2982
▁contri	-2983
▁ability	-2984
ta	-2985
▁journey	-2986
▁exception	-2987
▁charles	-2988
ille	-2989
▁reveal	-2990
▁bond	-2991
▁accur	-2992
▁fiction	-2993
ifully	-2994
▁pract	-2995
▁passion	-2996
iding	-2997
▁army	-2998
▁notice	-2999
▁fox	-3000
ified	-3001
▁fresh	-3002
▁adventure	-3003
ka	-3004
▁soul	-3005
▁thinks	-3006
▁sitting	-3007
▁club	-3008
▁unex	-3009
aus	-3010
edy	-3011
▁award	-3012
▁succeed	-3013
▁investig	-3014
▁runs	-3015
mans	-3016
▁added	-3017
▁surprisingly	-3018
▁fell	-3019
▁favour	-3020
▁stunning	-3021
▁impression	-3022
anda	-3023
▁bri	-3024
▁joy	-3025
▁issues	-3026
▁loves	-3027
▁indust	-3028
▁host	-3029
▁affair	-3030
aper	-3031
▁del	-3032
uce	-3033
inger	-3034
▁twists	-3035
▁aside	-3036
▁neigh	-3037
war	-3038
▁hey	-3039
▁starring	-3040
▁conclusion	-3041
▁won	-3042
▁fashion	-3043
▁mysterious	-3044
mar	-3045
▁mi	-3046
▁crow	-3047
▁spot	-3048
▁redeem	-3049
berg	-3050
ining	-3051
idence	-3052
ging	-3053
▁scar	-3054
▁sexy	-3055
▁tone	-3056
▁standard	-3057
ras	-3058
▁boss	-3059
▁loud	-3060
▁appeal	-3061
▁silent	-3062
▁addition	-3063
▁dar	-3064
▁flashback	-3065
izes	-3066
▁computer	-3067
▁likely	-3068
▁slasher	-3069
▁witness	-3070
sth	-3071
▁paris	-3072
▁honestly	-3073
urd	-3074
▁chase	-3075
▁insult	-3076
▁amateur	-3077
▁key	-3078
▁finish	-3079
▁serv	-3080
▁million	-3081
gen	-3082
▁stan	-3083
ki	-3084
▁witch	-3085
▁remains	-3086
▁seg	-3087
▁mult	-3088
▁destroy	-3089
▁nowhere	-3090
▁beautifully	-3091
ify	-3092
lessly	-3093
▁pan	-3094
▁obsess	-3095
▁naked	-3096
yle	-3097
▁terms	-3098
▁respons	-3099
▁available	-3100
▁sell	-3101
▁barb	-3102
▁graph	-3103
▁cinematic	-3104
▁nobody	-3105
▁animated	-3106
▁bob	-3107
▁program	-3108
you	-3109
▁edge	-3110
▁appearance	-3111
▁pun	-3112
▁planet	-3113
round	-3114
▁boyfriend	-3115
▁government	-3116
▁conflict	-3117
ium	-3118
▁hosp	-3119
▁drive	-3120
▁smith	-3121
▁scenery	-3122
▁london	-3123
▁personally	-3124
▁photography	-3125
▁ign	-3126
aining	-3127
▁generally	-3128
▁utterly	-3129
ruct	-3130
▁jeff	-3131
▁ride	-3132
▁military	-3133
▁hunt	-3134
▁escap	-3135
▁names	-3136
▁austral	-3137
▁charming	-3138
▁adaptation	-3139
▁civ	-3140
▁tor	-3141
▁climax	-3142
rid	-3143
irth	-3144
▁div	-3145
▁ship	-3146
▁lovely	-3147
▁describ	-3148
▁presence	-3149
ands	-3150
▁intrigu	-3151
▁dro	-3152
▁innocent	-3153
▁arm	-3154
▁cell	-3155
▁rare	-3156
▁terrific	-3157
▁tem	-3158
▁chall	-3159
▁north	-3160
▁bal	-3161
▁comedies	-3162
▁historical	-3163
aff	-3164
esh	-3165
▁constantly	-3166
▁thor	-3167
▁threat	-3168
▁changes	-3169
▁managed	-3170
stem	-3171
▁influ	-3172
▁disc	-3173
▁init	-3174
▁ry	-3175
▁drink	-3176
▁places	-3177
▁individ	-3178
▁kar	-3179
▁rip	-3180
▁giant	-3181
▁thrown	-3182
▁emotions	-3183
▁laughable	-3184
▁east	-3185
▁harry	-3186
▁loose	-3187
▁disappointing	-3188
die	-3189
itions	-3190
▁jones	-3191
▁zombies	-3192
cuss	-3193
▁commer	-3194
▁connect	-3195
▁suppose	-3196
oned	-3197
▁pil	-3198
▁chap	-3199
▁author	-3200
riage	-3201
▁walking	-3202
▁narrative	-3203
▁tradition	-3204
▁shar	-3205
▁compar	-3206
ste	-3207
uts	-3208
verse	-3209
▁jean	-3210
ropri	-3211
▁rain	-3212
▁pieces	-3213
▁details	-3214
▁protagon	-3215
▁touching	-3216
▁lau	-3217
▁offer	-3218
▁knowing	-3219
opher	-3220
▁slowly	-3221
just	-3222
vert	-3223
▁system	-3224
▁painful	-3225
▁soft	-3226
direct	-3227
▁charm	-3228
▁boo	-3229
icide	-3230
▁breath	-3231
▁victor	-3232
▁costumes	-3233
▁intended	-3234
arsh	-3235
▁steve	-3236
▁unbelievable	-3237
▁chur	-3238
▁makeup	-3239
set	-3240
▁date	-3241
▁surround	-3242
ica	-3243
▁ug	-3244
▁net	-3245
▁arch	-3246
▁block	-3247
▁civil	-3248
▁stands	-3249
▁led	-3250
▁shakes	-3251
▁filming	-3252
▁surf	-3253
▁excuse	-3254
▁independ	-3255
▁christian	-3256
▁dies	-3257
▁contains	-3258
▁medio	-3259
▁moral	-3260
▁absurd	-3261
▁hitchco	-3262
▁presented	-3263
rom	-3264
▁bottom	-3265
▁critics	-3266
▁intense	-3267
▁festival	-3268
yl	-3269
with	-3270
field	-3271
itude	-3272
▁leng	-3273
▁puts	-3274
ech	-3275
▁wow	-3276
▁desert	-3277
▁detective	-3278
▁der	-3279
▁themes	-3280
▁building	-3281
▁feelings	-3282
▁everybody	-3283
board	-3284
ability	-3285
▁object	-3286
hs	-3287
icated	-3288
▁makers	-3289
ham	-3290
unny	-3291
▁ing	-3292
▁ring	-3293
nes	-3294
vey	-3295
▁chris	-3296
▁outstanding	-3297
bud	-3298
ples	-3299
▁hurt	-3300
▁iron	-3301
▁mount	-3302
▁individual	-3303
▁nons	-3304
▁field	-3305
▁fully	-3306
▁encoun	-3307
▁univers	-3308
▁thus	-3309
▁central	-3310
▁current	-3311
▁equally	-3312
▁ash	-3313
▁acts	-3314
ressing	-3315
▁hun	-3316
▁correct	-3317
▁hoping	-3318
▁shall	-3319
▁element	-3320
▁forever	-3321
▁hospital	-3322
bol	-3323
▁fle	-3324
▁subt	-3325
▁disappointment	-3326
ef	-3327
orts	-3328
▁nast	-3329
▁youd	-3330
▁opera	-3331
▁subst	-3332
gar	-3333
▁producer	-3334
oud	-3335
ored	-3336
▁drunk	-3337
▁aspects	-3338
ano	-3339
▁race	-3340
▁radio	-3341
▁tired	-3342
abb	-3343
▁ener	-3344
▁behav	-3345
hen	-3346
ched	-3347
▁students	-3348
ront	-3349
▁prim	-3350
▁proper	-3351
▁serial	-3352
▁commercial	-3353
▁surely	-3354
▁fascinating	-3355
▁trust	-3356
▁spoiler	-3357
ette	-3358
▁ban	-3359
▁defe	-3360
▁virt	-3361
▁expectations	-3362
cle	-3363
▁discuss	-3364
▁mistake	-3365
▁aut	-3366
▁lam	-3367
▁mainly	-3368
▁ju	-3369
▁jon	-3370
▁church	-3371
ura	-3372
▁numb	-3373
▁woods	-3374
▁rac	-3375
▁blond	-3376
▁hook	-3377
▁mild	-3378
▁disgust	-3379
▁student	-3380
cra	-3381
▁eat	-3382
▁clean	-3383
▁elect	-3384
▁opportunity	-3385
ploy	-3386
oughly	-3387
▁faces	-3388
▁fellow	-3389
ode	-3390
rey	-3391
▁dread	-3392
▁resem	-3393
▁content	-3394
ford	-3395
▁laughed	-3396
▁hi	-3397
movie	-3398
▁victims	-3399
ander	-3400
▁impl	-3401
▁priv	-3402
▁grace	-3403
▁round	-3404
entially	-3405
mark	-3406
▁pra	-3407
▁ahead	-3408
▁chuck	-3409
▁martin	-3410
istent	-3411
▁freak	-3412
▁image	-3413
▁motion	-3414
▁stewart	-3415
▁wed	-3416
▁melod	-3417
▁confusing	-3418
▁buff	-3419
▁moon	-3420
▁sight	-3421
read	-3422
▁spl	-3423
▁stock	-3424
▁dreams	-3425
▁disaster	-3426
▁qual	-3427
▁impact	-3428
aven	-3429
▁summer	-3430
▁happening	-3431
ias	-3432
▁rh	-3433
▁cops	-3434
budget	-3435
▁bruce	-3436
▁finding	-3437
▁include	-3438
▁confused	-3439
▁eight	-3440
▁folks	-3441
▁justice	-3442
irt	-3443
▁double	-3444
▁fright	-3445
han	-3446
▁bon	-3447
▁deb	-3448
watch	-3449
▁cloth	-3450
▁irrit	-3451
▁charlie	-3452
▁grant	-3453
ked	-3454
▁anth	-3455
▁tony	-3456
iously	-3457
▁answer	-3458
▁flicks	-3459
gl	-3460
anna	-3461
▁tour	-3462
rick	-3463
▁thin	-3464
▁gorge	-3465
▁lived	-3466
do	-3467
▁max	-3468
po	-3469
▁arth	-3470
▁oppos	-3471
ns	-3472
ses	-3473
▁shad	-3474
▁thom	-3475
▁holes	-3476
▁dick	-3477
▁location	-3478
▁decis	-3479
atter	-3480
▁base	-3481
▁compelling	-3482
▁agent	-3483
▁besides	-3484
inct	-3485
lled	-3486
▁dim	-3487
▁drugs	-3488
▁process	-3489
▁resc	-3490
▁traged	-3491
erm	-3492
▁cele	-3493
▁ment	-3494
▁twice	-3495
iday	-3496
▁drawn	-3497
▁marriage	-3498
cr	-3499
▁mexic	-3500
▁scare	-3501
▁likable	-3502
▁impressed	-3503
lla	-3504
aint	-3505
▁occasion	-3506
▁difference	-3507
▁lacks	-3508
▁rated	-3509
▁share	-3510
▁symbol	-3511
▁relationships	-3512
▁ven	-3513
▁born	-3514
▁hide	-3515
▁blind	-3516
▁chick	-3517
▁batman	-3518
▁spectac	-3519
▁shakespe	-3520
ledge	-3521
▁falling	-3522
▁lighting	-3523
▁weap	-3524
▁station	-3525
▁highlight	-3526
bc	-3527
aur	-3528
down	-3529
▁fif	-3530
▁board	-3531
▁collection	-3532
▁christopher	-3533
ature	-3534
▁seemingly	-3535
val	-3536
▁adds	-3537
iles	-3538
▁helps	-3539
▁steven	-3540
▁developed	-3541
▁represent	-3542
vir	-3543
▁industry	-3544
▁information	-3545
aine	-3546
▁listen	-3547
▁negative	-3548
che	-3549
▁lord	-3550
▁crash	-3551
▁trailer	-3552
▁creative	-3553
ners	-3554
▁noir	-3555
▁games	-3556
▁remote	-3557
▁supposedly	-3558
▁lyn	-3559
▁roy	-3560
▁rout	-3561
▁appeared	-3562
▁paid	-3563
▁funniest	-3564
▁ms	-3565
uous	-3566
▁vin	-3567
▁delivers	-3568
even	-3569
▁naz	-3570
table	-3571
▁fault	-3572
▁russian	-3573
pret	-3574
▁ugly	-3575
▁convers	-3576
▁disappe	-3577
▁plane	-3578
▁dubb	-3579
▁wondering	-3580
▁ww	-3581
▁span	-3582
▁frust	-3583
▁hasnt	-3584
▁depart	-3585
▁gorgeous	-3586
▁wise	-3587
▁angel	-3588
ribe	-3589
▁nin	-3590
▁lover	-3591
nda	-3592
▁brown	-3593
▁market	-3594
onna	-3595
▁san	-3596
▁billy	-3597
▁anymore	-3598
oted	-3599
▁hat	-3600
▁stuck	-3601
inter	-3602
▁adults	-3603
▁offers	-3604
▁putting	-3605
▁willing	-3606
▁fortun	-3607
▁rented	-3608
▁machine	-3609
text	-3610
▁canad	-3611
▁explan	-3612
▁prefer	-3613
▁states	-3614
▁animals	-3615
▁filmmaking	-3616
kin	-3617
▁ful	-3618
▁wide	-3619
▁merely	-3620
▁unus	-3621
ique	-3622
▁flaws	-3623
▁allowed	-3624
cis	-3625
▁vs	-3626
▁jes	-3627
▁unreal	-3628
▁followed	-3629
▁melodram	-3630
▁americans	-3631
soever	-3632
▁actions	-3633
▁shouldnt	-3634
▁wil	-3635
▁hotel	-3636
▁contem	-3637
▁provides	-3638
▁reminded	-3639
▁speaking	-3640
▁imagination	-3641
▁ali	-3642
aries	-3643
ators	-3644
under	-3645
▁mediocre	-3646
▁aim	-3647
ushed	-3648
▁affect	-3649
▁heaven	-3650
▁forgotten	-3651
▁unne	-3652
▁latter	-3653
▁tragic	-3654
▁attractive	-3655
icip	-3656
▁tod	-3657
▁damn	-3658
▁bright	-3659
▁possess	-3660
▁therefore	-3661
▁display	-3662
▁becoming	-3663
raid	-3664
rors	-3665
ilities	-3666
▁mut	-3667
▁quiet	-3668
▁ready	-3669
▁shocking	-3670
▁whatsoever	-3671
▁mouth	-3672
tes	-3673
▁fro	-3674
▁kidn	-3675
▁birth	-3676
▁creature	-3677
bles	-3678
▁phone	-3679
▁celebr	-3680
▁soldier	-3681
▁personality	-3682
▁professional	-3683
mes	-3684
iser	-3685
▁grow	-3686
▁murders	-3687
▁area	-3688
▁card	-3689
▁suicide	-3690
▁lies	-3691
▁onto	-3692
nat	-3693
now	-3694
▁acad	-3695
▁carl	-3696
pected	-3697
jo	-3698
▁coun	-3699
▁angry	-3700
▁dirty	-3701
▁horse	-3702
ops	-3703
▁kiss	-3704
▁underst	-3705
▁standards	-3706
rie	-3707
▁captain	-3708
▁snow	-3709
▁worthy	-3710
▁gent	-3711
▁grade	-3712
illing	-3713
▁helped	-3714
▁streng	-3715
▁compare	-3716
lev	-3717
▁epic	-3718
▁uncle	-3719
▁wooden	-3720
▁childhood	-3721
▁cars	-3722
▁nasty	-3723
▁tragedy	-3724
▁turning	-3725
aded	-3726
▁mcc	-3727
▁punch	-3728
entional	-3729
▁returns	-3730
▁seconds	-3731
▁teenage	-3732
▁commentary	-3733
ek	-3734
▁jr	-3735
▁picked	-3736
▁artistic	-3737
▁fra	-3738
▁achieve	-3739
▁cgi	-3740
▁gam	-3741
▁henry	-3742
▁thoroughly	-3743
▁estab	-3744
▁priest	-3745
▁torture	-3746
▁actresses	-3747
▁nick	-3748
▁moved	-3749
▁artist	-3750
eper	-3751
isters	-3752
itor	-3753
mers	-3754
▁lose	-3755
▁slap	-3756
▁wars	-3757
▁friendship	-3758
erous	-3759
▁knock	-3760
▁proves	-3761
ules	-3762
▁member	-3763
▁formula	-3764
▁theatre	-3765
▁afraid	-3766
▁magnific	-3767
▁scientist	-3768
▁ros	-3769
▁grad	-3770
▁sour	-3771
azy	-3772
hol	-3773
▁na	-3774
orter	-3775
▁bland	-3776
▁stunt	-3777
▁prete	-3778
▁flying	-3779
▁wearing	-3780
▁inspired	-3781
azz	-3782
▁nic	-3783
▁devil	-3784
agers	-3785
agger	-3786
▁bank	-3787
otes	-3788
ok	-3789
▁food	-3790
▁warning	-3791
▁physical	-3792
▁superior	-3793
▁mic	-3794
▁mob	-3795
odies	-3796
▁asked	-3797
▁seven	-3798
when	-3799
▁chas	-3800
▁apartment	-3801
anks	-3802
▁sea	-3803
▁warm	-3804
▁teacher	-3805
▁unexpected	-3806
ja	-3807
urally	-3808
▁queen	-3809
▁unknown	-3810
▁continue	-3811
▁repeated	-3812
bi	-3813
▁oli	-3814
▁bits	-3815
▁williams	-3816
lls	-3817
▁dying	-3818
▁clothes	-3819
▁memory	-3820
▁dun	-3821
asure	-3822
▁bath	-3823
▁jerry	-3824
▁youth	-3825
▁monsters	-3826
▁lay	-3827
▁brid	-3828
▁held	-3829
▁dress	-3830
▁provide	-3831
▁describe	-3832
▁pleasure	-3833
▁ris	-3834
▁hack	-3835
▁began	-3836
▁kevin	-3837
▁realized	-3838
ita	-3839
roc	-3840
ued	-3841
win	-3842
▁insight	-3843
▁wanting	-3844
▁sucks	-3845
▁clichs	-3846
▁favourite	-3847
▁filmmaker	-3848
▁fal	-3849
▁kelly	-3850
▁vision	-3851
lor	-3852
kins	-3853
▁jan	-3854
▁ner	-3855
cover	-3856
▁loving	-3857
▁introduced	-3858
inese	-3859
▁relative	-3860
▁arts	-3861
writer	-3862
▁separ	-3863
▁numbers	-3864
▁struggle	-3865
house	-3866
▁flow	-3867
▁energy	-3868
▁todays	-3869
gory	-3870
▁rubb	-3871
search	-3872
▁jason	-3873
▁animal	-3874
▁bloody	-3875
▁martial	-3876
▁lone	-3877
▁zero	-3878
▁accord	-3879
▁rarely	-3880
▁independent	-3881
▁intelligence	-3882
port	-3883
▁bog	-3884
▁empt	-3885
▁hund	-3886
▁subpl	-3887
▁golden	-3888
osh	-3889
▁scr	-3890
▁vol	-3891
▁explos	-3892
▁target	-3893
▁soap	-3894
▁enter	-3895
▁necessary	-3896
▁redeeming	-3897
▁danny	-3898
▁judge	-3899
▁thous	-3900
▁accom	-3901
▁dor	-3902
▁brutal	-3903
▁intriguing	-3904
zen	-3905
xual	-3906
▁hidden	-3907
▁syn	-3908
▁asks	-3909
▁skin	-3910
▁dangerous	-3911
▁occur	-3912
▁tears	-3913
▁employ	-3914
▁anywhere	-3915
▁contrast	-3916
▁watchable	-3917
oul	-3918
▁rus	-3919
▁jenn	-3920
▁rape	-3921
▁johnny	-3922
▁wat	-3923
▁mine	-3924
▁chinese	-3925
▁religious	-3926
▁surprising	-3927
▁ord	-3928
▁recall	-3929
▁thomas	-3930
▁comedic	-3931
ooks	-3932
▁aware	-3933
▁holds	-3934
▁mission	-3935
▁deserved	-3936
▁knowledge	-3937
illa	-3938
▁fab	-3939
kward	-3940
▁calls	-3941
▁deserve	-3942
▁national	-3943
ousy	-3944
father	-3945
▁belong	-3946
▁cann	-3947
▁stink	-3948
pective	-3949
ena	-3950
apped	-3951
▁ryan	-3952
ashing	-3953
▁account	-3954
▁progress	-3955
▁wonderfully	-3956
oid	-3957
▁deeply	-3958
rad	-3959
▁fish	-3960
▁page	-3961
▁heroes	-3962
▁surreal	-3963
▁craft	-3964
▁alt	-3965
▁hill	-3966
ropriate	-3967
▁awkward	-3968
▁research	-3969
lli	-3970
▁ice	-3971
▁soph	-3972
▁blame	-3973
▁speed	-3974
▁reminds	-3975
▁includes	-3976
▁explanation	-3977
nold	-3978
▁sac	-3979
▁boat	-3980
▁hint	-3981
▁crack	-3982
▁plots	-3983
▁invent	-3984
▁hundred	-3985
▁accurate	-3986
▁crowd	-3987
▁heads	-3988
▁unint	-3989
▁subtit	-3990
▁hitchcock	-3991
▁dut	-3992
▁loss	-3993
▁shop	-3994
▁tend	-3995
▁ie	-3996
▁nicely	-3997
▁limited	-3998
▁understanding	-3999
aly	-4000
entious	-4001
▁assist	-4002
▁anybody	-4003
▁ton	-4004
▁guns	-4005
▁brand	-4006
ilst	-4007
athers	-4008
nam	-4009
▁hated	-4010
▁react	-4011
▁criminal	-4012
▁tex	-4013
▁enth	-4014
ss	-4015
iac	-4016
ency	-4017
icle	-4018
▁dig	-4019
▁dom	-4020
ading	-4021
urity	-4022
▁below	-4023
▁pacing	-4024
▁unusual	-4025
▁insane	-4026
▁transl	-4027
▁remarkable	-4028
nders	-4029
▁lovers	-4030
stal	-4031
▁cass	-4032
▁mike	-4033
▁tay	-4034
▁lind	-4035
▁harris	-4036
▁foreign	-4037
▁tight	-4038
▁scared	-4039
ifer	-4040
ston	-4041
▁purs	-4042
▁smile	-4043
▁powers	-4044
▁memories	-4045
▁president	-4046
▁gags	-4047
▁lock	-4048
▁nomin	-4049
▁confront	-4050
▁hyp	-4051
▁vhs	-4052
▁ens	-4053
anced	-4054
▁pair	-4055
▁motiv	-4056
▁steal	-4057
▁humans	-4058
▁months	-4059
▁noticed	-4060
bell	-4061
rical	-4062
▁mental	-4063
▁virgin	-4064
▁constant	-4065
▁unnecessary	-4066
▁ow	-4067
▁sant	-4068
▁captured	-4069
▁signific	-4070
▁community	-4071
▁locations	-4072
eman	-4073
▁debut	-4074
▁villains	-4075
▁revolution	-4076
▁lie	-4077
▁core	-4078
▁freed	-4079
▁reflect	-4080
oved	-4081
▁sav	-4082
▁wel	-4083
overall	-4084
▁leader	-4085
▁opposite	-4086
▁regret	-4087
▁twenty	-4088
director	-4089
▁accompl	-4090
▁driving	-4091
▁engaging	-4092
▁experien	-4093
▁desperate	-4094
▁vac	-4095
▁adam	-4096
▁domin	-4097
▁lew	-4098
▁joan	-4099
▁learned	-4100
▁officer	-4101
itz	-4102
lock	-4103
▁cab	-4104
herent	-4105
▁river	-4106
▁skill	-4107
▁academy	-4108
▁proceed	-4109
▁stephen	-4110
▁technical	-4111
▁opt	-4112
▁veh	-4113
▁issue	-4114
▁minim	-4115
▁lowbudget	-4116
ift	-4117
aire	-4118
ivity	-4119
▁cruel	-4120
▁jackson	-4121
▁references	-4122
ole	-4123
▁sem	-4124
▁players	-4125
oh	-4126
sons	-4127
aph	-4128
▁wid	-4129
after	-4130
▁morning	-4131
bian	-4132
atory	-4133
▁visit	-4134
▁whilst	-4135
▁interpret	-4136
▁responsible	-4137
acc	-4138
aud	-4139
▁sed	-4140
▁alan	-4141
▁educ	-4142
▁price	-4143
▁stone	-4144
▁belief	-4145
▁rubbish	-4146
▁humanity	-4147
ancy	-4148
▁rub	-4149
▁assass	-4150
▁seat	-4151
▁length	-4152
▁manage	-4153
▁creating	-4154
▁ordinary	-4155
soci	-4156
▁grat	-4157
▁junk	-4158
▁beach	-4159
▁brian	-4160
▁arthur	-4161
oons	-4162
arded	-4163
▁player	-4164
▁specif	-4165
▁somebody	-4166
ipul	-4167
▁sky	-4168
▁aband	-4169
▁gentle	-4170
▁saving	-4171
see	-4172
▁ly	-4173
▁mrs	-4174
▁ron	-4175
ethis	-4176
▁cook	-4177
▁fate	-4178
▁stret	-4179
▁window	-4180
ails	-4181
▁flesh	-4182
▁keeping	-4183
▁treated	-4184
▁explained	-4185
stre	-4186
ruction	-4187
▁england	-4188
▁lacking	-4189
▁sisters	-4190
▁finished	-4191
▁hits	-4192
▁hadnt	-4193
▁establish	-4194
asts	-4195
▁coo	-4196
arted	-4197
▁cate	-4198
▁floor	-4199
▁remain	-4200
▁starting	-4201
▁connection	-4202
aton	-4203
▁eric	-4204
▁ford	-4205
▁behavior	-4206
▁comparison	-4207
rays	-4208
▁bear	-4209
▁growing	-4210
▁cy	-4211
▁bow	-4212
▁fer	-4213
stein	-4214
ville	-4215
▁goof	-4216
▁peace	-4217
▁fights	-4218
▁killers	-4219
▁magnificent	-4220
ini	-4221
miss	-4222
▁incre	-4223
▁press	-4224
▁realism	-4225
▁survive	-4226
▁neighbor	-4227
▁eg	-4228
▁generation	-4229
pro	-4230
▁gh	-4231
iven	-4232
▁hay	-4233
▁cash	-4234
▁lynch	-4235
▁mixed	-4236
▁werew	-4237
▁bigger	-4238
▁uncon	-4239
▁efforts	-4240
▁murdered	-4241
ids	-4242
nie	-4243
stick	-4244
▁buddy	-4245
▁paper	-4246
▁prove	-4247
cas	-4248
pher	-4249
▁gal	-4250
▁frame	-4251
▁pilot	-4252
▁singer	-4253
▁winning	-4254
▁crappy	-4255
▁desire	-4256
▁princi	-4257
▁gig	-4258
▁skip	-4259
▁witty	-4260
▁columb	-4261
▁capture	-4262
pr	-4263
abor	-4264
cise	-4265
pless	-4266
▁trib	-4267
▁spoof	-4268
▁occasionally	-4269
ker	-4270
▁cali	-4271
▁eddie	-4272
▁sword	-4273
▁broken	-4274
▁circum	-4275
▁finest	-4276
▁forces	-4277
▁gotten	-4278
▁numerous	-4279
▁intellect	-4280
iling	-4281
▁anne	-4282
▁model	-4283
▁associ	-4284
▁included	-4285
▁normally	-4286
▁guest	-4287
▁expert	-4288
nia	-4289
▁simpl	-4290
▁strength	-4291
▁gas	-4292
▁mitch	-4293
▁intent	-4294
▁struct	-4295
▁partner	-4296
hand	-4297
▁batt	-4298
▁tape	-4299
▁ward	-4300
▁hopes	-4301
interest	-4302
pir	-4303
yer	-4304
elle	-4305
▁frequ	-4306
▁spanish	-4307
mare	-4308
alled	-4309
▁empty	-4310
▁robin	-4311
ensional	-4312
▁context	-4313
▁instance	-4314
▁encounter	-4315
cul	-4316
break	-4317
▁speech	-4318
▁private	-4319
rog	-4320
rous	-4321
▁haw	-4322
▁jose	-4323
▁moore	-4324
▁according	-4325
▁eth	-4326
▁cuts	-4327
▁pupp	-4328
▁text	-4329
▁cable	-4330
▁deals	-4331
▁media	-4332
▁incomp	-4333
▁veter	-4334
▁determ	-4335
▁philos	-4336
ban	-4337
inis	-4338
▁envir	-4339
▁resol	-4340
▁dressed	-4341
▁streets	-4342
▁nonsense	-4343
▁reaction	-4344
bur	-4345
sthis	-4346
▁cris	-4347
▁howard	-4348
▁unfunny	-4349
▁humorous	-4350
▁revealed	-4351
▁terribly	-4352
▁shakespeare	-4353
rate	-4354
▁sean	-4355
▁kinda	-4356
▁advice	-4357
▁andrew	-4358
▁dealing	-4359
▁regular	-4360
▁teenagers	-4361
▁irritating	-4362
▁stereotypes	-4363
▁barry	-4364
ye	-4365
cient	-4366
▁naturally	-4367
▁originally	-4368
▁bag	-4369
▁cyn	-4370
▁bell	-4371
▁screw	-4372
▁pretentious	-4373
udd	-4374
uel	-4375
umps	-4376
▁loy	-4377
▁jung	-4378
▁safe	-4379
▁davis	-4380
▁glass	-4381
▁sharp	-4382
▁pulled	-4383
▁relate	-4384
ques	-4385
onment	-4386
▁provo	-4387
▁castle	-4388
▁whenever	-4389
gers	-4390
▁feet	-4391
▁heal	-4392
▁higher	-4393
▁marvel	-4394
▁toward	-4395
lers	-4396
▁european	-4397
▁concerned	-4398
ads	-4399
▁sid	-4400
icked	-4401
▁glor	-4402
▁circumst	-4403
▁psychological	-4404
inal	-4405
ograp	-4406
ration	-4407
▁sheer	-4408
▁texas	-4409
▁corrupt	-4410
▁discovered	-4411
▁court	-4412
▁organ	-4413
▁consist	-4414
▁peoples	-4415
▁talents	-4416
▁village	-4417
▁vampires	-4418
ums	-4419
iled	-4420
iving	-4421
▁atte	-4422
▁weve	-4423
rating	-4424
▁louis	-4425
▁saved	-4426
▁truck	-4427
▁compan	-4428
▁sucked	-4429
▁international	-4430
ii	-4431
gue	-4432
ups	-4433
▁jam	-4434
▁ske	-4435
▁manipul	-4436
▁featuring	-4437
▁underrated	-4438
▁vul	-4439
▁gary	-4440
▁print	-4441
natural	-4442
▁finale	-4443
▁challen	-4444
▁jennifer	-4445
▁reviewers	-4446
▁trek	-4447
▁miser	-4448
▁wound	-4449
imental	-4450
▁african	-4451
▁comfort	-4452
irm	-4453
bled	-4454
▁heres	-4455
▁aliens	-4456
▁nightmare	-4457
▁chore	-4458
▁essentially	-4459
▁sir	-4460
▁gross	-4461
▁wrest	-4462
▁genuinely	-4463
eds	-4464
▁kur	-4465
▁heck	-4466
porary	-4467
▁multi	-4468
▁study	-4469
rifying	-4470
▁altern	-4471
▁taylor	-4472
▁freedom	-4473
▁results	-4474
▁received	-4475
ym	-4476
▁disp	-4477
icious	-4478
▁skills	-4479
▁unfold	-4480
▁worlds	-4481
▁frankly	-4482
▁photograph	-4483
▁row	-4484
bling	-4485
▁hood	-4486
▁weal	-4487
▁center	-4488
▁attitude	-4489
▁football	-4490
▁screaming	-4491
cies	-4492
night	-4493
▁heroine	-4494
▁remembered	-4495
zan	-4496
▁marry	-4497
▁miles	-4498
und	-4499
▁uk	-4500
anned	-4501
▁range	-4502
▁sheriff	-4503
vit	-4504
▁fame	-4505
▁hart	-4506
▁allen	-4507
▁opens	-4508
ication	-4509
▁flashbacks	-4510
▁deg	-4511
▁nich	-4512
▁grown	-4513
▁imagin	-4514
▁charism	-4515
▁failure	-4516
▁dreadful	-4517
▁continues	-4518
fo	-4519
ennis	-4520
▁agre	-4521
▁sole	-4522
▁dated	-4523
▁breaks	-4524
▁hunter	-4525
▁consequ	-4526
▁classics	-4527
ante	-4528
abeth	-4529
▁bird	-4530
▁kenn	-4531
▁owner	-4532
▁anthony	-4533
▁extraord	-4534
▁creatures	-4535
▁unrealistic	-4536
▁lesson	-4537
▁satire	-4538
▁visuals	-4539
core	-4540
▁inh	-4541
▁lucky	-4542
▁unable	-4543
▁quir	-4544
▁dougl	-4545
telling	-4546
▁hallow	-4547
▁protect	-4548
▁ultimate	-4549
omed	-4550
pent	-4551
rant	-4552
▁blow	-4553
▁overly	-4554
▁shallow	-4555
▁wedding	-4556
▁incident	-4557
▁vote	-4558
▁decision	-4559
thet	-4560
▁sab	-4561
▁viet	-4562
▁famil	-4563
▁edited	-4564
▁scenar	-4565
▁sitcom	-4566
▁evidence	-4567
▁described	-4568
▁australian	-4569
▁protagonist	-4570
▁spectacular	-4571
ato	-4572
▁dogs	-4573
▁gory	-4574
▁redu	-4575
▁ladies	-4576
▁curious	-4577
▁identity	-4578
aker	-4579
vest	-4580
oring	-4581
▁jess	-4582
ulous	-4583
▁buck	-4584
▁tack	-4585
▁levels	-4586
▁distract	-4587
▁philosoph	-4588
oos	-4589
▁gord	-4590
▁obsc	-4591
▁cameo	-4592
▁parody	-4593
▁washing	-4594
▁gangster	-4595
vy	-4596
▁corny	-4597
▁relief	-4598
▁contrived	-4599
don	-4600
cons	-4601
▁bbc	-4602
ribut	-4603
▁emer	-4604
▁logic	-4605
▁native	-4606
▁perspective	-4607
▁wolf	-4608
▁chief	-4609
▁talks	-4610
▁uncom	-4611
▁france	-4612
who	-4613
▁hed	-4614
▁tap	-4615
angers	-4616
▁asian	-4617
▁albert	-4618
▁teenager	-4619
▁discovers	-4620
▁shut	-4621
▁site	-4622
▁switch	-4623
ographer	-4624
ba	-4625
insp	-4626
▁cath	-4627
▁choose	-4628
▁command	-4629
▁rot	-4630
▁gard	-4631
▁decade	-4632
nday	-4633
stit	-4634
▁gene	-4635
▁grew	-4636
ushing	-4637
▁douglas	-4638
▁existence	-4639
▁chan	-4640
▁gonna	-4641
▁graphic	-4642
▁provided	-4643
▁delightful	-4644
awn	-4645
▁dry	-4646
ients	-4647
▁theyve	-4648
▁involves	-4649
tw	-4650
dom	-4651
uls	-4652
▁ages	-4653
▁expos	-4654
▁delivered	-4655
▁combination	-4656
reg	-4657
▁hung	-4658
▁sake	-4659
▁lewis	-4660
▁laughter	-4661
▁inex	-4662
▁ruth	-4663
▁tiny	-4664
▁bodies	-4665
▁propag	-4666
▁collect	-4667
▁meeting	-4668
▁brilliantly	-4669
sell	-4670
athan	-4671
▁send	-4672
▁satur	-4673
▁endless	-4674
▁theaters	-4675
icit	-4676
that	-4677
acting	-4678
▁admir	-4679
▁jimmy	-4680
▁rules	-4681
▁types	-4682
▁eating	-4683
rence	-4684
▁lesbian	-4685
aren	-4686
▁leon	-4687
▁seag	-4688
▁roman	-4689
osexual	-4690
▁colour	-4691
▁creates	-4692
▁emotionally	-4693
▁traditional	-4694
oman	-4695
▁andy	-4696
▁meth	-4697
▁cares	-4698
▁disgusting	-4699
etime	-4700
theless	-4701
▁advert	-4702
▁asking	-4703
▁rescue	-4704
▁counter	-4705
▁bringing	-4706
▁expression	-4707
ilty	-4708
▁shel	-4709
▁bound	-4710
▁loses	-4711
▁allows	-4712
▁capable	-4713
▁promise	-4714
▁families	-4715
▁handsome	-4716
▁standing	-4717
▁amateurish	-4718
▁kim	-4719
anged	-4720
▁matt	-4721
▁rose	-4722
▁candy	-4723
▁necess	-4724
▁proved	-4725
ument	-4726
▁tick	-4727
▁built	-4728
▁assume	-4729
▁environment	-4730
ogy	-4731
anic	-4732
away	-4733
▁aka	-4734
▁cit	-4735
▁tas	-4736
however	-4737
▁inspir	-4738
▁authent	-4739
▁service	-4740
▁halloween	-4741
aming	-4742
▁fict	-4743
▁kong	-4744
▁enemy	-4745
▁julie	-4746
▁morgan	-4747
▁sympathetic	-4748
▁fi	-4749
▁jesus	-4750
▁fathers	-4751
ube	-4752
gged	-4753
point	-4754
▁lear	-4755
▁summ	-4756
▁believes	-4757
▁visually	-4758
reen	-4759
▁dyn	-4760
ashed	-4761
▁brave	-4762
▁brad	-4763
▁gratuit	-4764
▁controvers	-4765
teen	-4766
oting	-4767
▁accomp	-4768
▁majority	-4769
mal	-4770
cher	-4771
outs	-4772
▁nav	-4773
▁eliz	-4774
▁blockb	-4775
▁dollars	-4776
▁reviewer	-4777
entionally	-4778
osen	-4779
roph	-4780
they	-4781
▁lin	-4782
levant	-4783
▁dinos	-4784
▁inept	-4785
▁barbara	-4786
▁subtitles	-4787
▁treatment	-4788
eg	-4789
▁harsh	-4790
▁larry	-4791
looking	-4792
▁psycho	-4793
▁portrays	-4794
▁embarrassing	-4795
law	-4796
▁fare	-4797
▁sides	-4798
▁weeks	-4799
▁compos	-4800
▁ancient	-4801
▁tedious	-4802
▁executed	-4803
isa	-4804
▁till	-4805
▁purch	-4806
▁spark	-4807
▁steals	-4808
▁rod	-4809
▁costs	-4810
▁naive	-4811
▁network	-4812
▁horribly	-4813
itter	-4814
▁rise	-4815
▁pleasant	-4816
▁thoughts	-4817
othy	-4818
usive	-4819
▁stol	-4820
americ	-4821
▁refres	-4822
▁viewed	-4823
▁circumstances	-4824
▁fil	-4825
eness	-4826
▁ende	-4827
▁facts	-4828
▁guard	-4829
▁rough	-4830
▁unfor	-4831
▁extras	-4832
aughters	-4833
▁excited	-4834
▁sequels	-4835
▁strongly	-4836
▁eld	-4837
▁link	-4838
▁maint	-4839
▁proud	-4840
▁revel	-4841
▁united	-4842
▁voices	-4843
za	-4844
aret	-4845
▁table	-4846
▁walked	-4847
▁francis	-4848
▁matters	-4849
iro	-4850
▁sen	-4851
▁prior	-4852
uther	-4853
▁anti	-4854
▁citiz	-4855
▁conce	-4856
▁lousy	-4857
▁blonde	-4858
▁religion	-4859
▁authentic	-4860
▁push	-4861
▁rick	-4862
▁caused	-4863
▁silver	-4864
▁studios	-4865
▁slapstick	-4866
▁theatrical	-4867
aken	-4868
ault	-4869
burn	-4870
▁pin	-4871
▁pity	-4872
▁anton	-4873
▁teens	-4874
▁rental	-4875
add	-4876
▁mum	-4877
▁swim	-4878
▁shark	-4879
▁awards	-4880
▁dubbed	-4881
▁preach	-4882
▁refreshing	-4883
▁entertained	-4884
nal	-4885
▁jun	-4886
▁clue	-4887
formed	-4888
▁walks	-4889
▁driver	-4890
▁erotic	-4891
▁twisted	-4892
▁contemporary	-4893
▁passed	-4894
▁involve	-4895
▁werewolf	-4896
first	-4897
▁letter	-4898
▁evening	-4899
▁shocked	-4900
▁cartoons	-4901
▁gratuitous	-4902
▁harm	-4903
stream	-4904
▁meanwhile	-4905
pet	-4906
good	-4907
▁robot	-4908
▁enthus	-4909
▁inevit	-4910
▁depressing	-4911
rix	-4912
▁lud	-4913
▁offe	-4914
▁forth	-4915
▁popul	-4916
▁stalk	-4917
▁wayne	-4918
▁darkness	-4919
▁experienced	-4920
▁ade	-4921
ights	-4922
▁goth	-4923
▁source	-4924
▁sports	-4925
▁produce	-4926
▁routine	-4927
▁stopped	-4928
▁surface	-4929
▁suffering	-4930
▁portraying	-4931
▁technology	-4932
▁mask	-4933
▁alice	-4934
▁convey	-4935
▁losing	-4936
then	-4937
imate	-4938
▁wins	-4939
▁shadow	-4940
▁germany	-4941
▁vehicle	-4942
▁hopefully	-4943
▁exploitation	-4944
ama	-4945
oom	-4946
▁dust	-4947
▁ideal	-4948
▁chosen	-4949
▁hearing	-4950
▁largely	-4951
▁versions	-4952
▁committed	-4953
mm	-4954
▁nur	-4955
▁lake	-4956
▁excit	-4957
▁lon	-4958
▁idiot	-4959
▁plans	-4960
▁factor	-4961
▁ripoff	-4962
▁ruined	-4963
▁criticism	-4964
▁painfully	-4965
▁universal	-4966
lyn	-4967
ulp	-4968
▁ba	-4969
dies	-4970
kend	-4971
leep	-4972
arian	-4973
xious	-4974
▁kung	-4975
▁benef	-4976
▁trick	-4977
ausible	-4978
▁segment	-4979
▁log	-4980
▁pit	-4981
▁rat	-4982
▁learns	-4983
▁prince	-4984
▁qualities	-4985
yc	-4986
gir	-4987
▁raw	-4988
▁drop	-4989
▁minds	-4990
▁gordon	-4991
▁experiment	-4992
▁satisfying	-4993
▁nevertheless	-4994
▁grim	-4995
▁irish	-4996
▁joseph	-4997
ores	-4998
ca	-4999
atra	-5000
hero	-5001
lim	-5002
whel	-5003
▁fits	-5004
▁vague	-5005
▁jungle	-5006
▁reject	-5007
▁universe	-5008
▁emph	-5009
▁angles	-5010
▁arrest	-5011
▁bmovie	-5012
▁virtually	-5013
▁propaganda	-5014
reck	-5015
▁delic	-5016
▁innoc	-5017
▁pitch	-5018
▁method	-5019
▁spends	-5020
▁influence	-5021
▁ig	-5022
reek	-5023
▁sup	-5024
enced	-5025
orted	-5026
▁overd	-5027
▁prostit	-5028
▁depicted	-5029
▁descript	-5030
▁saturday	-5031
ipp	-5032
▁bern	-5033
▁cust	-5034
▁inner	-5035
raction	-5036
▁demons	-5037
▁turkey	-5038
▁haunting	-5039
▁mountain	-5040
▁nu	-5041
▁bik	-5042
▁anna	-5043
▁chair	-5044
▁guilty	-5045
▁latest	-5046
▁daughters	-5047
▁excitement	-5048
▁ll	-5049
▁kath	-5050
▁asleep	-5051
▁variety	-5052
▁department	-5053
▁relatively	-5054
▁tow	-5055
▁jail	-5056
fornia	-5057
fortun	-5058
▁edward	-5059
▁speaks	-5060
▁substance	-5061
▁cous	-5062
▁craw	-5063
▁dynam	-5064
▁jackie	-5065
▁massac	-5066
▁halfway	-5067
▁elizabeth	-5068
▁recognize	-5069
▁experiences	-5070
ez	-5071
mond	-5072
▁alco	-5073
▁mort	-5074
▁patrick	-5075
▁convince	-5076
▁multiple	-5077
▁sympathy	-5078
▁professor	-5079
▁cring	-5080
▁pregn	-5081
▁nichol	-5082
▁holding	-5083
▁believed	-5084
▁training	-5085
▁promising	-5086
▁fix	-5087
▁reun	-5088
▁spin	-5089
▁murph	-5090
▁jewish	-5091
▁outrage	-5092
▁canadian	-5093
▁performed	-5094
▁practically	-5095
cut	-5096
also	-5097
udes	-5098
▁coff	-5099
▁kore	-5100
▁dennis	-5101
▁landsc	-5102
▁calling	-5103
▁confess	-5104
▁nominated	-5105
▁previously	-5106
▁worthwhile	-5107
ils	-5108
vol	-5109
▁beast	-5110
▁false	-5111
▁cowboy	-5112
▁forest	-5113
▁cutting	-5114
chan	-5115
erie	-5116
▁whe	-5117
which	-5118
▁lion	-5119
alling	-5120
▁toler	-5121
▁captures	-5122
▁movement	-5123
▁appropriate	-5124
lem	-5125
▁mock	-5126
▁liber	-5127
▁polic	-5128
▁urban	-5129
▁seasons	-5130
▁yearold	-5131
▁featured	-5132
▁extraordinary	-5133
▁ded	-5134
▁penn	-5135
▁tril	-5136
▁lower	-5137
atherine	-5138
▁veteran	-5139
ga	-5140
▁anger	-5141
▁reput	-5142
▁rival	-5143
▁clichd	-5144
▁friday	-5145
▁holmes	-5146
▁alcohol	-5147
▁costume	-5148
▁suffers	-5149
▁unfortunate	-5150
▁conversation	-5151
ype	-5152
mind	-5153
▁bore	-5154
▁cage	-5155
▁myth	-5156
▁lights	-5157
▁contact	-5158
▁reminis	-5159
▁appealing	-5160
▁acqu	-5161
▁curt	-5162
▁champ	-5163
▁continuity	-5164
apping	-5165
▁grave	-5166
▁vietnam	-5167
▁favorites	-5168
▁accidentally	-5169
▁si	-5170
▁prime	-5171
▁keaton	-5172
▁praise	-5173
▁roberts	-5174
▁suspenseful	-5175
ya	-5176
ache	-5177
ached	-5178
chant	-5179
lying	-5180
▁evol	-5181
▁wear	-5182
▁commit	-5183
▁handled	-5184
▁presents	-5185
▁westerns	-5186
▁childrens	-5187
▁structure	-5188
▁washington	-5189
▁supernatural	-5190
beat	-5191
▁slo	-5192
▁scale	-5193
▁obsessed	-5194
▁ire	-5195
▁sne	-5196
gging	-5197
icate	-5198
▁aint	-5199
thetop	-5200
▁winner	-5201
▁accents	-5202
▁hanging	-5203
▁increas	-5204
▁initial	-5205
▁category	-5206
▁statement	-5207
interesting	-5208
▁adventures	-5209
tha	-5210
▁ped	-5211
▁kate	-5212
▁meat	-5213
▁neat	-5214
▁carol	-5215
▁roger	-5216
▁crying	-5217
▁haunted	-5218
▁patient	-5219
▁bothered	-5220
▁offensive	-5221
▁intellectual	-5222
hi	-5223
oyd	-5224
oses	-5225
atives	-5226
ighter	-5227
▁chose	-5228
▁deadly	-5229
▁emphas	-5230
▁tarzan	-5231
▁broadway	-5232
▁surprises	-5233
screen	-5234
▁donald	-5235
▁carpent	-5236
▁position	-5237
▁storytelling	-5238
▁oz	-5239
▁atro	-5240
▁pian	-5241
▁abuse	-5242
▁loyal	-5243
▁ludic	-5244
▁degree	-5245
▁touches	-5246
▁weekend	-5247
▁breaking	-5248
▁directly	-5249
▁overlook	-5250
▁unconvin	-5251
▁execution	-5252
gm	-5253
abe	-5254
iat	-5255
fire	-5256
▁butt	-5257
▁claims	-5258
▁trilogy	-5259
▁courage	-5260
▁massive	-5261
▁overthetop	-5262
▁ah	-5263
achel	-5264
▁lane	-5265
▁poign	-5266
▁warri	-5267
▁deaths	-5268
▁presum	-5269
▁exagger	-5270
▁figured	-5271
▁demonstr	-5272
▁unlikely	-5273
bour	-5274
umbling	-5275
▁concert	-5276
▁trapped	-5277
▁politics	-5278
▁everywhere	-5279
▁disag	-5280
▁profound	-5281
craft	-5282
▁dude	-5283
taking	-5284
▁hitler	-5285
▁atrocious	-5286
▁destroyed	-5287
▁sensitive	-5288
▁forgettable	-5289
▁ja	-5290
eral	-5291
world	-5292
▁jeal	-5293
▁simon	-5294
▁flight	-5295
▁section	-5296
▁southern	-5297
▁stereotypical	-5298
fill	-5299
▁mst	-5300
▁por	-5301
▁cave	-5302
▁drew	-5303
▁stom	-5304
▁andor	-5305
▁cheese	-5306
▁closer	-5307
▁eastwood	-5308
▁realizes	-5309
▁mainstream	-5310
sp	-5311
▁ren	-5312
▁rule	-5313
▁vent	-5314
▁serves	-5315
▁improve	-5316
▁prepared	-5317
▁coinc	-5318
▁colon	-5319
▁spite	-5320
▁execut	-5321
▁covered	-5322
ibal	-5323
neys	-5324
itious	-5325
▁seagal	-5326
▁required	-5327
fl	-5328
film	-5329
▁sons	-5330
▁tong	-5331
▁schem	-5332
▁accompan	-5333
▁reporter	-5334
▁pulls	-5335
▁bitter	-5336
▁brooks	-5337
▁colors	-5338
▁excess	-5339
▁effectively	-5340
▁productions	-5341
aa	-5342
cho	-5343
via	-5344
▁sink	-5345
▁anime	-5346
▁addict	-5347
▁mexican	-5348
▁complain	-5349
▁security	-5350
▁abandoned	-5351
irk	-5352
▁fet	-5353
▁ree	-5354
▁hoff	-5355
▁sorts	-5356
▁worry	-5357
▁amazingly	-5358
▁fictional	-5359
gas	-5360
▁hong	-5361
▁pile	-5362
▁nurse	-5363
▁nostal	-5364
▁renting	-5365
▁frightening	-5366
lie	-5367
▁arms	-5368
▁stolen	-5369
▁contain	-5370
▁legendary	-5371
▁homosexual	-5372
▁reputation	-5373
ago	-5374
▁ara	-5375
ipped	-5376
▁chic	-5377
▁ligh	-5378
▁africa	-5379
▁gritty	-5380
▁superf	-5381
▁walter	-5382
▁welcome	-5383
▁anderson	-5384
▁remotely	-5385
▁interviews	-5386
ales	-5387
▁unp	-5388
▁dean	-5389
▁rush	-5390
idents	-5391
▁clark	-5392
▁paced	-5393
▁repet	-5394
▁rights	-5395
▁shorts	-5396
▁mistakes	-5397
▁melodrama	-5398
▁von	-5399
ching	-5400
▁spring	-5401
▁suffer	-5402
▁alright	-5403
▁artists	-5404
▁narration	-5405
zo	-5406
olic	-5407
▁tag	-5408
iseries	-5409
▁wilson	-5410
although	-5411
▁tremend	-5412
▁princess	-5413
wy	-5414
▁cock	-5415
▁lift	-5416
▁grues	-5417
▁hired	-5418
▁upset	-5419
▁demand	-5420
▁mildly	-5421
▁johnson	-5422
▁vacation	-5423
▁transform	-5424
▁underground	-5425
▁cha	-5426
▁toy	-5427
▁betty	-5428
▁encou	-5429
▁parker	-5430
american	-5431
▁greater	-5432
▁weapons	-5433
▁critical	-5434
ugs	-5435
aust	-5436
life	-5437
▁unw	-5438
▁decades	-5439
▁distinct	-5440
▁painting	-5441
ola	-5442
▁jaw	-5443
▁burt	-5444
▁luke	-5445
▁robb	-5446
▁ruin	-5447
▁term	-5448
▁quirky	-5449
atically	-5450
▁focused	-5451
▁imagery	-5452
▁magical	-5453
▁preview	-5454
▁russell	-5455
▁lifetime	-5456
▁distribut	-5457
▁downright	-5458
▁thankfully	-5459
char	-5460
▁lum	-5461
▁oce	-5462
▁seek	-5463
ingers	-5464
▁divor	-5465
▁nonex	-5466
▁cooper	-5467
▁franch	-5468
▁placed	-5469
▁sounded	-5470
▁convinced	-5471
▁occasional	-5472
bit	-5473
ucle	-5474
▁via	-5475
▁appl	-5476
▁aunt	-5477
▁fond	-5478
▁hind	-5479
▁irre	-5480
▁pros	-5481
▁task	-5482
▁china	-5483
▁paint	-5484
▁concent	-5485
▁contest	-5486
▁heavily	-5487
▁wouldve	-5488
▁explains	-5489
▁stranger	-5490
▁superman	-5491
▁california	-5492
▁miniseries	-5493
▁fac	-5494
ouses	-5495
▁puzz	-5496
▁swed	-5497
▁fairy	-5498
▁choices	-5499
▁granted	-5500
▁blockbuster	-5501
fet	-5502
cula	-5503
▁vast	-5504
▁cheer	-5505
▁teeth	-5506
fection	-5507
▁deeper	-5508
▁driven	-5509
▁sevent	-5510
▁summary	-5511
▁combined	-5512
▁particip	-5513
ado	-5514
long	-5515
▁dece	-5516
▁cliff	-5517
▁captiv	-5518
▁raised	-5519
▁theory	-5520
▁arrives	-5521
▁chaplin	-5522
▁figures	-5523
▁gruesome	-5524
▁treasure	-5525
▁depiction	-5526
jud	-5527
zil	-5528
▁isol	-5529
▁unre	-5530
▁daniel	-5531
▁mature	-5532
▁status	-5533
etheless	-5534
▁faithful	-5535
bod	-5536
appy	-5537
▁jay	-5538
▁lem	-5539
▁sha	-5540
anity	-5541
▁campy	-5542
▁sarah	-5543
ression	-5544
▁stayed	-5545
▁capital	-5546
▁closing	-5547
▁funnier	-5548
uns	-5549
▁usa	-5550
ipping	-5551
uclear	-5552
▁julia	-5553
▁notor	-5554
▁storm	-5555
lection	-5556
▁device	-5557
▁warned	-5558
▁focuses	-5559
▁stomach	-5560
▁whoever	-5561
▁massacre	-5562
▁listening	-5563
tz	-5564
roll	-5565
▁gut	-5566
▁pir	-5567
▁spy	-5568
▁blah	-5569
▁coach	-5570
▁amazed	-5571
▁paying	-5572
▁baseball	-5573
▁changing	-5574
▁designed	-5575
▁necessarily	-5576
▁ot	-5577
face	-5578
ioned	-5579
▁gall	-5580
▁wand	-5581
▁buying	-5582
▁dragon	-5583
▁intens	-5584
▁offered	-5585
den	-5586
plays	-5587
mother	-5588
▁blown	-5589
▁dozen	-5590
▁serve	-5591
▁overwhel	-5592
▁scenario	-5593
▁contribut	-5594
lig	-5595
▁exh	-5596
▁crude	-5597
▁curse	-5598
▁helen	-5599
▁shell	-5600
enstein	-5601
▁throws	-5602
▁afterno	-5603
▁reveals	-5604
▁uninteresting	-5605
reh	-5606
▁igno	-5607
▁mickey	-5608
▁examples	-5609
▁writerdirector	-5610
may	-5611
ule	-5612
onic	-5613
inson	-5614
▁kinds	-5615
▁lonely	-5616
▁weapon	-5617
▁dracula	-5618
▁subplot	-5619
▁subsequ	-5620
▁murderer	-5621
▁understood	-5622
▁originality	-5623
▁iv	-5624
orig	-5625
▁code	-5626
▁obno	-5627
▁phen	-5628
▁elder	-5629
▁dinner	-5630
▁regarding	-5631
▁complicated	-5632
des	-5633
lan	-5634
▁las	-5635
▁reb	-5636
▁brun	-5637
▁tear	-5638
▁indie	-5639
▁metal	-5640
▁betray	-5641
▁corpor	-5642
▁strict	-5643
▁passing	-5644
▁screening	-5645
▁unconvincing	-5646
▁dub	-5647
▁blat	-5648
▁diss	-5649
▁farm	-5650
▁hole	-5651
▁torn	-5652
▁goofy	-5653
▁surviv	-5654
breaking	-5655
▁throwing	-5656
▁ken	-5657
▁thro	-5658
▁inhab	-5659
▁thumb	-5660
▁format	-5661
▁murphy	-5662
▁timing	-5663
▁carries	-5664
▁rolling	-5665
anny	-5666
▁cos	-5667
▁pac	-5668
▁sov	-5669
▁berg	-5670
▁bugs	-5671
▁bush	-5672
▁plant	-5673
▁nation	-5674
walk	-5675
▁ecc	-5676
▁tax	-5677
ament	-5678
▁exte	-5679
▁jobs	-5680
▁ignor	-5681
▁krist	-5682
▁consum	-5683
▁ignore	-5684
▁couldve	-5685
▁minimal	-5686
▁delivery	-5687
▁everyday	-5688
▁ludicrous	-5689
▁kane	-5690
▁sport	-5691
▁border	-5692
▁novels	-5693
▁racism	-5694
▁scares	-5695
▁pregnant	-5696
▁condition	-5697
orb	-5698
▁om	-5699
▁ze	-5700
case	-5701
ugos	-5702
▁ric	-5703
▁argu	-5704
▁india	-5705
▁facial	-5706
▁integr	-5707
▁lawyer	-5708
▁vincent	-5709
▁significant	-5710
▁causes	-5711
▁knight	-5712
▁nights	-5713
▁uninsp	-5714
▁nuclear	-5715
▁succeeds	-5716
▁desperately	-5717
his	-5718
▁od	-5719
▁que	-5720
icles	-5721
▁alas	-5722
▁join	-5723
▁nude	-5724
▁pier	-5725
mented	-5726
▁phill	-5727
▁tales	-5728
▁brazil	-5729
▁dollar	-5730
▁mirror	-5731
▁parall	-5732
▁racist	-5733
end	-5734
part	-5735
▁alb	-5736
▁gab	-5737
▁tree	-5738
▁unbe	-5739
▁mirac	-5740
▁steps	-5741
▁prevent	-5742
▁initially	-5743
bra	-5744
▁diam	-5745
belief	-5746
▁laura	-5747
▁rings	-5748
▁charge	-5749
▁attempting	-5750
▁guar	-5751
▁daily	-5752
▁obser	-5753
▁served	-5754
▁beloved	-5755
▁description	-5756
uch	-5757
▁fbi	-5758
iques	-5759
▁cind	-5760
▁hust	-5761
▁libr	-5762
▁pitt	-5763
▁rank	-5764
▁kings	-5765
▁magaz	-5766
▁stays	-5767
▁struggling	-5768
ika	-5769
▁cub	-5770
orses	-5771
▁blair	-5772
▁views	-5773
▁metaph	-5774
▁perform	-5775
▁drinking	-5776
▁learning	-5777
▁sophistic	-5778
▁fed	-5779
▁flor	-5780
▁poet	-5781
▁incor	-5782
▁patri	-5783
▁fourth	-5784
▁purely	-5785
▁sunday	-5786
▁scripts	-5787
▁touched	-5788
▁internet	-5789
▁retarded	-5790
▁sleeping	-5791
▁stupidity	-5792
▁inspiration	-5793
ndy	-5794
oooo	-5795
▁inj	-5796
▁wra	-5797
iders	-5798
▁hence	-5799
ception	-5800
▁adding	-5801
▁handle	-5802
▁reward	-5803
▁welles	-5804
▁answers	-5805
▁comical	-5806
▁helping	-5807
▁properly	-5808
▁appreciated	-5809
▁expressions	-5810
▁reminiscent	-5811
yth	-5812
ties	-5813
ught	-5814
▁severe	-5815
▁carried	-5816
▁medical	-5817
▁miscast	-5818
▁nonexistent	-5819
▁eve	-5820
▁adop	-5821
▁hugh	-5822
▁sham	-5823
▁sinc	-5824
▁titles	-5825
▁nonetheless	-5826
▁introduction	-5827
▁protagonists	-5828
iller	-5829
▁exer	-5830
▁pink	-5831
▁wwii	-5832
▁advant	-5833
▁hammer	-5834
▁amongst	-5835
▁journal	-5836
▁mothers	-5837
▁cultural	-5838
▁afternoon	-5839
▁assistant	-5840
▁bollywood	-5841
▁disbelief	-5842
ali	-5843
▁tab	-5844
actic	-5845
▁honor	-5846
mate	-5847
tered	-5848
▁marg	-5849
▁outf	-5850
▁tommy	-5851
▁drives	-5852
▁extent	-5853
▁accepted	-5854
▁separate	-5855
aid	-5856
▁rey	-5857
▁voy	-5858
▁corn	-5859
liners	-5860
▁madness	-5861
▁princip	-5862
▁starred	-5863
▁assassin	-5864
adays	-5865
nolds	-5866
▁challeng	-5867
▁atmospher	-5868
▁construct	-5869
▁controversial	-5870
fin	-5871
▁bol	-5872
▁shr	-5873
asant	-5874
▁invis	-5875
▁susan	-5876
▁assign	-5877
▁league	-5878
▁oliver	-5879
▁related	-5880
▁disagree	-5881
▁enjoying	-5882
▁obnoxious	-5883
▁scientists	-5884
rol	-5885
▁mes	-5886
▁bald	-5887
▁carn	-5888
▁sple	-5889
▁basis	-5890
▁chron	-5891
▁attacks	-5892
▁battles	-5893
▁plastic	-5894
▁mentally	-5895
▁ta	-5896
fall	-5897
race	-5898
thew	-5899
▁atl	-5900
▁tam	-5901
class	-5902
▁duck	-5903
▁lisa	-5904
▁argent	-5905
▁comedian	-5906
▁determined	-5907
▁pi	-5908
worth	-5909
▁dear	-5910
▁entry	-5911
▁santa	-5912
▁wears	-5913
▁widow	-5914
▁flawed	-5915
▁matrix	-5916
lle	-5917
beit	-5918
udge	-5919
▁mgm	-5920
▁nom	-5921
▁backd	-5922
▁reference	-5923
▁q	-5924
cont	-5925
made	-5926
▁pig	-5927
▁forb	-5928
▁karl	-5929
▁risk	-5930
▁phenom	-5931
▁ratings	-5932
▁stylish	-5933
▁credible	-5934
▁fabulous	-5935
▁sinister	-5936
imensional	-5937
▁broadcast	-5938
ifies	-5939
otion	-5940
▁elev	-5941
▁mupp	-5942
▁angle	-5943
▁aston	-5944
▁stell	-5945
▁tense	-5946
▁caring	-5947
▁criminals	-5948
▁happiness	-5949
▁credibility	-5950
▁breathtaking	-5951
col	-5952
ulk	-5953
zed	-5954
aves	-5955
▁bare	-5956
▁dawn	-5957
▁gods	-5958
▁lazy	-5959
▁announ	-5960
▁deliber	-5961
utherland	-5962
▁nowadays	-5963
▁settings	-5964
▁thousands	-5965
▁interpretation	-5966
ari	-5967
dont	-5968
from	-5969
▁math	-5970
▁picks	-5971
another	-5972
▁philip	-5973
▁horrors	-5974
hold	-5975
laim	-5976
▁ghosts	-5977
▁resist	-5978
hor	-5979
ida	-5980
▁pg	-5981
umph	-5982
▁bour	-5983
anyway	-5984
coming	-5985
▁ashamed	-5986
▁ern	-5987
▁gle	-5988
ented	-5989
▁boot	-5990
▁rene	-5991
▁wash	-5992
▁proof	-5993
▁union	-5994
written	-5995
▁albeit	-5996
▁videos	-5997
▁immense	-5998
▁admitted	-5999
▁innocence	-6000
▁sutherland	-6001
▁screenwriter	-6002
icial	-6003
ilton	-6004
umble	-6005
▁cance	-6006
▁portra	-6007
▁weight	-6008
▁escapes	-6009
▁notable	-6010
▁revolves	-6011
▁countries	-6012
▁perfection	-6013
nn	-6014
why	-6015
▁ol	-6016
opath	-6017
▁disgu	-6018
▁topic	-6019
▁corner	-6020
▁cousin	-6021
▁miller	-6022
▁manager	-6023
▁carrying	-6024
▁graphics	-6025
▁mindless	-6026
▁moviethe	-6027
oe	-6028
ada	-6029
chy	-6030
rich	-6031
▁arr	-6032
▁lust	-6033
▁tune	-6034
▁gather	-6035
▁diamond	-6036
▁greatly	-6037
▁attacked	-6038
▁chilling	-6039
▁confusion	-6040
ito	-6041
fest	-6042
kind	-6043
▁neck	-6044
▁andre	-6045
▁exists	-6046
▁warner	-6047
▁balance	-6048
▁hoffman	-6049
▁letting	-6050
ibilities	-6051
▁creation	-6052
▁horrific	-6053
▁interact	-6054
▁replaced	-6055
▁challenge	-6056
▁strangely	-6057
tv	-6058
oms	-6059
▁nol	-6060
▁hipp	-6061
▁hearts	-6062
▁tongue	-6063
▁filmthe	-6064
▁sincere	-6065
▁gripping	-6066
▁catherine	-6067
▁intensity	-6068
▁struggles	-6069
▁frequently	-6070
▁exceptional	-6071
othe	-6072
▁bew	-6073
▁fel	-6074
▁pool	-6075
▁itthe	-6076
▁lloyd	-6077
▁woody	-6078
▁ironic	-6079
▁opened	-6080
▁sleazy	-6081
▁michelle	-6082
▁poignant	-6083
▁uncomfort	-6084
gypt	-6085
lett	-6086
pire	-6087
rend	-6088
▁une	-6089
▁dare	-6090
▁cases	-6091
▁equal	-6092
▁innov	-6093
▁spell	-6094
▁splend	-6095
▁anticip	-6096
▁lessons	-6097
▁wealthy	-6098
▁contract	-6099
▁stealing	-6100
▁embarrassed	-6101
ani	-6102
ello	-6103
wing	-6104
amous	-6105
▁dave	-6106
▁mstk	-6107
▁clint	-6108
▁stops	-6109
▁columbo	-6110
▁idiotic	-6111
▁thunder	-6112
▁triumph	-6113
▁official	-6114
har	-6115
▁flu	-6116
▁bart	-6117
▁cole	-6118
▁pray	-6119
▁stoo	-6120
▁wann	-6121
ointed	-6122
▁italy	-6123
▁angels	-6124
▁fallen	-6125
▁illust	-6126
▁robber	-6127
▁stanwy	-6128
▁whereas	-6129
▁guessing	-6130
aude	-6131
plic	-6132
forms	-6133
▁femin	-6134
▁cynical	-6135
llen	-6136
▁bang	-6137
▁laid	-6138
▁clips	-6139
▁wreck	-6140
ogether	-6141
▁tarant	-6142
▁thirty	-6143
▁lovable	-6144
▁restaur	-6145
▁socalled	-6146
▁sexuality	-6147
▁technique	-6148
arl	-6149
ibl	-6150
rum	-6151
quis	-6152
▁gro	-6153
▁viv	-6154
mates	-6155
▁alle	-6156
▁icon	-6157
▁arrog	-6158
▁egypt	-6159
▁finan	-6160
▁spook	-6161
ishment	-6162
▁wicked	-6163
▁dislike	-6164
ification	-6165
▁advantage	-6166
▁etern	-6167
▁raise	-6168
▁shape	-6169
▁vivid	-6170
forward	-6171
▁hyster	-6172
▁unforget	-6173
▁franchise	-6174
thr	-6175
uman	-6176
▁alf	-6177
▁dud	-6178
▁ral	-6179
▁broke	-6180
▁relax	-6181
▁tempt	-6182
▁stunts	-6183
▁conspir	-6184
▁presentation	-6185
tr	-6186
oke	-6187
iger	-6188
order	-6189
▁firm	-6190
▁jumps	-6191
▁sally	-6192
▁sings	-6193
oration	-6194
▁borrow	-6195
▁dramas	-6196
▁parano	-6197
▁repeat	-6198
▁soviet	-6199
▁friendly	-6200
▁millions	-6201
▁thousand	-6202
▁imaginative	-6203
uk	-6204
va	-6205
ket	-6206
udos	-6207
alley	-6208
isher	-6209
▁nose	-6210
▁sket	-6211
▁greek	-6212
▁griff	-6213
▁occup	-6214
▁stiff	-6215
▁render	-6216
▁convict	-6217
▁scratch	-6218
▁cannibal	-6219
▁psychiat	-6220
▁clar	-6221
▁exch	-6222
▁stro	-6223
▁marsh	-6224
▁noted	-6225
▁conner	-6226
▁conven	-6227
▁mexico	-6228
▁powell	-6229
▁smooth	-6230
▁useless	-6231
▁consists	-6232
▁electric	-6233
▁midnight	-6234
▁ax	-6235
grade	-6236
▁autom	-6237
▁hills	-6238
▁strip	-6239
▁thief	-6240
▁toile	-6241
iveness	-6242
▁tender	-6243
▁sinatra	-6244
▁suggests	-6245
▁searching	-6246
▁spiritual	-6247
bad	-6248
▁meg	-6249
semble	-6250
▁guide	-6251
▁wheel	-6252
▁puppet	-6253
▁holiday	-6254
▁inspect	-6255
fun	-6256
pow	-6257
▁fx	-6258
rian	-6259
▁territ	-6260
▁silence	-6261
▁musicals	-6262
▁obsession	-6263
▁physically	-6264
▁profession	-6265
▁appearances	-6266
can	-6267
writ	-6268
▁shy	-6269
▁grey	-6270
▁nazi	-6271
▁shed	-6272
▁tall	-6273
▁aired	-6274
▁maria	-6275
▁access	-6276
▁chases	-6277
▁hiding	-6278
▁walker	-6279
▁instantly	-6280
aze	-6281
och	-6282
jack	-6283
ship	-6284
▁sag	-6285
erior	-6286
▁cats	-6287
▁shir	-6288
▁eager	-6289
▁enorm	-6290
▁matth	-6291
▁monke	-6292
▁lesser	-6293
▁ripped	-6294
▁andrews	-6295
▁horrend	-6296
▁install	-6297
▁tribute	-6298
▁wasting	-6299
▁specific	-6300
▁attempted	-6301
▁marvelous	-6302
▁ourselves	-6303
star	-6304
▁len	-6305
▁nut	-6306
▁web	-6307
▁warn	-6308
▁lying	-6309
▁horses	-6310
▁riding	-6311
▁transfer	-6312
▁meaningful	-6313
▁regardless	-6314
▁techniques	-6315
▁technically	-6316
amor	-6317
ishes	-6318
▁reli	-6319
▁karen	-6320
▁nazis	-6321
ounding	-6322
▁redempt	-6323
▁seeking	-6324
▁consequences	-6325
▁successfully	-6326
low	-6327
ume	-6328
▁ups	-6329
vised	-6330
▁corp	-6331
▁dise	-6332
▁feed	-6333
▁blank	-6334
▁bobby	-6335
▁bucks	-6336
▁trial	-6337
▁upper	-6338
▁monkey	-6339
▁sacrif	-6340
▁shines	-6341
▁snakes	-6342
▁boredom	-6343
▁germans	-6344
▁reynolds	-6345
▁essential	-6346
▁slaughter	-6347
▁surrounding	-6348
isc	-6349
oub	-6350
sch	-6351
esis	-6352
▁hud	-6353
▁decl	-6354
▁legs	-6355
▁nine	-6356
▁irony	-6357
▁marie	-6358
▁bridge	-6359
▁crimes	-6360
▁modest	-6361
▁birthday	-6362
▁hundreds	-6363
▁suffered	-6364
▁established	-6365
gia	-6366
nic	-6367
▁beer	-6368
theres	-6369
▁gradu	-6370
▁oblig	-6371
▁saves	-6372
▁hooked	-6373
▁termin	-6374
▁refuses	-6375
▁invisible	-6376
▁performers	-6377
▁nd	-6378
produ	-6379
▁depe	-6380
▁dign	-6381
▁orch	-6382
▁jamie	-6383
▁motor	-6384
▁snake	-6385
▁traum	-6386
▁spoken	-6387
▁thread	-6388
▁troubled	-6389
▁australia	-6390
▁attraction	-6391
apes	-6392
▁tied	-6393
rified	-6394
▁cabin	-6395
▁caric	-6396
▁clown	-6397
▁glory	-6398
▁quote	-6399
▁thick	-6400
▁belongs	-6401
▁closely	-6402
▁masters	-6403
▁neighborhood	-6404
▁ack	-6405
▁hip	-6406
▁wax	-6407
▁bust	-6408
▁busy	-6409
▁dent	-6410
▁geor	-6411
▁inacc	-6412
▁string	-6413
▁womans	-6414
▁achieved	-6415
▁overcome	-6416
▁appearing	-6417
▁competent	-6418
▁sentimental	-6419
▁unforgettable	-6420
vi	-6421
bec	-6422
mean	-6423
▁doc	-6424
▁gain	-6425
▁styl	-6426
▁ambig	-6427
▁burns	-6428
▁leslie	-6429
▁poster	-6430
▁prejud	-6431
▁intentions	-6432
asp	-6433
▁dod	-6434
▁lur	-6435
▁pse	-6436
vably	-6437
▁activ	-6438
▁month	-6439
vet	-6440
▁ka	-6441
some	-6442
▁gor	-6443
▁rabb	-6444
▁todd	-6445
▁newsp	-6446
▁sends	-6447
chester	-6448
▁garden	-6449
▁suburb	-6450
▁adapted	-6451
▁mitchell	-6452
hill	-6453
▁abys	-6454
▁dvds	-6455
▁inco	-6456
▁knife	-6457
▁ninja	-6458
▁elabor	-6459
▁homage	-6460
▁briefly	-6461
▁essence	-6462
▁checking	-6463
▁exercise	-6464
fortunately	-6465
▁outrageous	-6466
ona	-6467
airs	-6468
itar	-6469
▁iti	-6470
▁adequ	-6471
▁hardy	-6472
▁nancy	-6473
▁solve	-6474
▁stumb	-6475
▁suits	-6476
▁incons	-6477
▁lacked	-6478
▁chasing	-6479
▁crafted	-6480
▁thrilling	-6481
▁individuals	-6482
imm	-6483
▁cup	-6484
▁wis	-6485
▁cher	-6486
▁dump	-6487
▁judg	-6488
▁myst	-6489
▁outs	-6490
▁pulp	-6491
▁rome	-6492
iments	-6493
▁health	-6494
▁kennedy	-6495
▁weakness	-6496
ox	-6497
▁az	-6498
▁kr	-6499
▁manh	-6500
▁trap	-6501
iation	-6502
▁bible	-6503
▁caine	-6504
▁gotta	-6505
▁wishes	-6506
▁persons	-6507
▁explicit	-6508
▁enjoyment	-6509
▁intention	-6510
▁notorious	-6511
▁uninspired	-6512
▁personalities	-6513
bal	-6514
ila	-6515
sen	-6516
rics	-6517
▁cus	-6518
impse	-6519
▁bros	-6520
▁guts	-6521
▁navy	-6522
▁chest	-6523
▁faced	-6524
▁ralph	-6525
▁spots	-6526
▁shoots	-6527
▁shower	-6528
▁colorful	-6529
▁spending	-6530
▁carefully	-6531
▁disappear	-6532
▁kidnapped	-6533
▁atmospheric	-6534
▁competition	-6535
aky	-6536
geon	-6537
hard	-6538
oops	-6539
▁ira	-6540
▁mam	-6541
▁folk	-6542
▁nail	-6543
blance	-6544
▁outer	-6545
▁souls	-6546
▁spiel	-6547
▁attend	-6548
▁waters	-6549
▁cameron	-6550
▁glimpse	-6551
▁indians	-6552
▁basement	-6553
▁acceptable	-6554
▁fortunately	-6555
orc	-6556
ader	-6557
arth	-6558
▁dum	-6559
▁aged	-6560
▁sadd	-6561
▁dealt	-6562
▁limit	-6563
▁moviei	-6564
▁annoyed	-6565
▁happily	-6566
▁miserably	-6567
roy	-6568
iels	-6569
▁croc	-6570
▁mars	-6571
iosity	-6572
▁blows	-6573
▁guilt	-6574
▁mouse	-6575
▁notch	-6576
▁staff	-6577
▁beings	-6578
▁engine	-6579
▁releas	-6580
▁jessica	-6581
▁stretch	-6582
▁connected	-6583
aks	-6584
▁ker	-6585
▁jerk	-6586
▁rend	-6587
▁burst	-6588
▁emily	-6589
▁inher	-6590
▁setup	-6591
▁foster	-6592
▁medium	-6593
▁doctors	-6594
▁opposed	-6595
▁concerns	-6596
▁ensemble	-6597
▁importantly	-6598
▁uncomfortable	-6599
inch	-6600
lins	-6601
ller	-6602
angle	-6603
▁cure	-6604
assion	-6605
▁sidek	-6606
▁larger	-6607
▁select	-6608
▁struck	-6609
▁unbear	-6610
▁beating	-6611
▁identify	-6612
▁subplots	-6613
▁thrillers	-6614
▁revelation	-6615
▁stu	-6616
arter	-6617
ifting	-6618
▁heist	-6619
▁oddly	-6620
▁reall	-6621
▁towns	-6622
▁afford	-6623
▁freddy	-6624
▁maniac	-6625
▁cameraw	-6626
▁inaccur	-6627
▁develops	-6628
▁portrait	-6629
▁elsewhere	-6630
▁repeatedly	-6631
▁destruction	-6632
ingu	-6633
▁rig	-6634
▁voc	-6635
▁wave	-6636
▁airpl	-6637
▁drags	-6638
▁rushed	-6639
▁tricks	-6640
▁dialogs	-6641
▁freeman	-6642
▁pointed	-6643
▁incompet	-6644
▁needless	-6645
▁cardboard	-6646
▁redemption	-6647
aki	-6648
inn	-6649
lest	-6650
pses	-6651
▁bac	-6652
▁kub	-6653
▁beck	-6654
▁bone	-6655
▁nuts	-6656
▁wake	-6657
othing	-6658
▁grows	-6659
▁wanna	-6660
▁eccent	-6661
▁korean	-6662
▁rachel	-6663
▁talked	-6664
mentioned	-6665
▁husbands	-6666
▁striking	-6667
cia	-6668
onse	-6669
▁tad	-6670
lands	-6671
▁dict	-6672
▁isra	-6673
iently	-6674
▁labor	-6675
▁pride	-6676
▁unple	-6677
▁abrupt	-6678
▁locked	-6679
▁hunting	-6680
▁creators	-6681
▁infamous	-6682
▁jonathan	-6683
▁godfather	-6684
ulg	-6685
athe	-6686
▁hers	-6687
▁kicks	-6688
▁theyd	-6689
ologist	-6690
▁oscars	-6691
▁matthew	-6692
▁replace	-6693
▁stanwyck	-6694
▁suspects	-6695
hal	-6696
hes	-6697
▁luc	-6698
▁mun	-6699
▁fund	-6700
▁rive	-6701
▁zone	-6702
▁fears	-6703
▁holly	-6704
▁marks	-6705
▁rocks	-6706
▁satan	-6707
▁lifest	-6708
▁shadows	-6709
▁ambitious	-6710
▁camerawork	-6711
ems	-6712
sec	-6713
eline	-6714
going	-6715
isons	-6716
ounds	-6717
▁sque	-6718
▁blade	-6719
▁cameos	-6720
▁norman	-6721
▁rogers	-6722
▁assault	-6723
▁ignored	-6724
▁library	-6725
▁catholic	-6726
▁returning	-6727
▁encounters	-6728
▁increasingly	-6729
rase	-6730
rell	-6731
stop	-6732
▁bak	-6733
▁oil	-6734
lines	-6735
▁earn	-6736
▁heat	-6737
▁prec	-6738
▁coast	-6739
▁lugos	-6740
▁noble	-6741
▁piano	-6742
▁editor	-6743
▁finger	-6744
▁franco	-6745
▁pacino	-6746
▁phenomen	-6747
▁precious	-6748
▁territory	-6749
▁melodramatic	-6750
agh	-6751
▁cro	-6752
▁dal	-6753
ieces	-6754
▁gray	-6755
▁muse	-6756
ifying	-6757
▁hoped	-6758
▁split	-6759
▁admire	-6760
▁dancer	-6761
▁empath	-6762
▁spread	-6763
▁toilet	-6764
▁dragged	-6765
istically	-6766
▁sexually	-6767
▁victoria	-6768
▁curiosity	-6769
▁expensive	-6770
gun	-6771
▁aid	-6772
▁bin	-6773
▁cig	-6774
▁oct	-6775
creen	-6776
erved	-6777
▁reed	-6778
▁size	-6779
▁wack	-6780
▁doors	-6781
▁shout	-6782
▁stood	-6783
▁easier	-6784
▁infect	-6785
▁israel	-6786
ographic	-6787
▁selling	-6788
▁inexplic	-6789
▁relevant	-6790
▁endearing	-6791
▁oneliners	-6792
▁sophisticated	-6793
mod	-6794
▁rug	-6795
▁apoc	-6796
▁cham	-6797
▁eleg	-6798
▁khan	-6799
▁popc	-6800
erella	-6801
▁illeg	-6802
▁savage	-6803
▁dubbing	-6804
▁enthusi	-6805
▁forgive	-6806
▁selfish	-6807
▁remaining	-6808
▁revealing	-6809
▁inevitable	-6810
icop	-6811
imag	-6812
▁hbo	-6813
▁pad	-6814
▁glob	-6815
▁crisis	-6816
▁explod	-6817
▁conclud	-6818
▁dropped	-6819
▁orchest	-6820
▁hardcore	-6821
▁mistaken	-6822
▁repetitive	-6823
▁investigation	-6824
la	-6825
place	-6826
▁webs	-6827
▁bleak	-6828
▁traff	-6829
▁horrid	-6830
▁handful	-6831
▁magazine	-6832
▁appalling	-6833
▁jen	-6834
▁liz	-6835
▁reh	-6836
▁vig	-6837
▁goal	-6838
▁audio	-6839
▁kitch	-6840
▁trite	-6841
▁venge	-6842
▁britain	-6843
▁restaurant	-6844
▁unintentionally	-6845
arm	-6846
ipes	-6847
poil	-6848
▁egg	-6849
rehens	-6850
▁eerie	-6851
▁loser	-6852
▁stole	-6853
▁gothic	-6854
▁vulner	-6855
original	-6856
▁accused	-6857
▁reallife	-6858
▁requires	-6859
▁attracted	-6860
▁typically	-6861
▁importance	-6862
▁performing	-6863
▁terrifying	-6864
book	-6865
▁pap	-6866
▁jere	-6867
▁josh	-6868
▁shoes	-6869
▁steam	-6870
▁arnold	-6871
▁burton	-6872
▁chains	-6873
▁stated	-6874
▁helicop	-6875
▁jumping	-6876
▁backdrop	-6877
▁response	-6878
▁eccentric	-6879
cend	-6880
▁bay	-6881
▁inn	-6882
▁rif	-6883
▁hype	-6884
▁tons	-6885
▁fatal	-6886
▁ocean	-6887
▁threw	-6888
▁packed	-6889
▁breasts	-6890
▁horrendous	-6891
▁reasonable	-6892
▁tremendous	-6893
idly	-6894
mons	-6895
▁lol	-6896
acted	-6897
atisf	-6898
conom	-6899
▁emma	-6900
▁stir	-6901
▁butch	-6902
▁raped	-6903
▁slick	-6904
▁winds	-6905
▁devast	-6906
▁juliet	-6907
▁launch	-6908
▁restra	-6909
▁sandra	-6910
▁fifteen	-6911
▁closeups	-6912
▁predator	-6913
▁possessed	-6914
▁highlights	-6915
▁unpleasant	-6916
wife	-6917
▁esp	-6918
stone	-6919
▁argue	-6920
▁clues	-6921
▁merit	-6922
▁travels	-6923
▁watches	-6924
▁wonders	-6925
▁timeless	-6926
▁discovery	-6927
▁motivation	-6928
eath	-6929
ptic	-6930
▁sme	-6931
verty	-6932
▁imit	-6933
▁lucy	-6934
▁mini	-6935
handed	-6936
▁afore	-6937
▁button	-6938
▁combat	-6939
▁inspector	-6940
▁commercials	-6941
gra	-6942
iere	-6943
▁kat	-6944
ettes	-6945
istan	-6946
water	-6947
▁bold	-6948
▁mile	-6949
movies	-6950
▁noise	-6951
▁econom	-6952
▁poison	-6953
▁wilder	-6954
▁angeles	-6955
▁burning	-6956
▁citizen	-6957
▁engaged	-6958
▁factory	-6959
▁loosely	-6960
▁poverty	-6961
▁pulling	-6962
▁charisma	-6963
▁instinct	-6964
anagh	-6965
▁punk	-6966
ements	-6967
weight	-6968
▁blues	-6969
▁immig	-6970
▁phant	-6971
▁laurel	-6972
▁observ	-6973
▁report	-6974
▁conduct	-6975
▁demands	-6976
▁leonard	-6977
▁unwatch	-6978
▁reactions	-6979
▁symbolism	-6980
ees	-6981
fia	-6982
▁mm	-6983
icing	-6984
▁cried	-6985
▁fulci	-6986
▁linda	-6987
▁pseud	-6988
▁trade	-6989
isation	-6990
▁mechan	-6991
▁reluct	-6992
▁sidney	-6993
▁yellow	-6994
▁precise	-6995
▁spoiled	-6996
▁messages	-6997
▁countless	-6998
▁interaction	-6999
▁rud	-7000
▁spr	-7001
▁dere	-7002
▁jazz	-7003
▁root	-7004
▁giall	-7005
▁hollow	-7006
▁occurs	-7007
▁perpet	-7008
▁dismiss	-7009
▁distant	-7010
▁fortune	-7011
▁politic	-7012
▁realise	-7013
▁allowing	-7014
▁associated	-7015
▁explosions	-7016
▁incoherent	-7017
she	-7018
▁nel	-7019
▁circ	-7020
▁mall	-7021
▁wing	-7022
▁areas	-7023
▁maker	-7024
▁smoke	-7025
▁walls	-7026
hearted	-7027
writers	-7028
▁corpse	-7029
▁idiots	-7030
▁smoking	-7031
▁killings	-7032
▁subjects	-7033
▁providing	-7034
▁brilliance	-7035
oma	-7036
▁ps	-7037
▁dol	-7038
▁wag	-7039
uloid	-7040
▁calm	-7041
▁slim	-7042
usions	-7043
▁fancy	-7044
▁frost	-7045
▁ranks	-7046
▁morris	-7047
▁chicago	-7048
▁elderly	-7049
▁someones	-7050
▁superbly	-7051
▁tortured	-7052
▁believing	-7053
▁afterwards	-7054
▁altogether	-7055
▁hysterical	-7056
▁surrounded	-7057
▁documentaries	-7058
ieu	-7059
leys	-7060
ogue	-7061
▁eli	-7062
▁cere	-7063
▁plat	-7064
▁bears	-7065
▁farce	-7066
▁hanks	-7067
▁imper	-7068
▁notes	-7069
▁bullet	-7070
▁insert	-7071
▁chances	-7072
▁pleased	-7073
▁detailed	-7074
▁officers	-7075
▁alexander	-7076
iar	-7077
▁rd	-7078
erty	-7079
omit	-7080
▁clo	-7081
▁rit	-7082
▁gift	-7083
minded	-7084
▁bride	-7085
▁virus	-7086
▁resort	-7087
▁theyll	-7088
▁yester	-7089
▁evident	-7090
▁jealous	-7091
▁mansion	-7092
▁persona	-7093
▁definite	-7094
▁displays	-7095
▁survival	-7096
▁reasonably	-7097
▁resolution	-7098
▁subsequent	-7099
hem	-7100
obe	-7101
heim	-7102
owed	-7103
▁nar	-7104
attan	-7105
woman	-7106
▁bark	-7107
▁ramp	-7108
▁sail	-7109
▁sull	-7110
▁bless	-7111
▁exorc	-7112
▁brains	-7113
▁daring	-7114
▁genres	-7115
▁groups	-7116
▁digital	-7117
▁drunken	-7118
▁swedish	-7119
▁frustrated	-7120
▁grandfather	-7121
iors	-7122
▁gif	-7123
style	-7124
▁rein	-7125
▁drown	-7126
▁juven	-7127
▁squad	-7128
▁beaten	-7129
▁escaped	-7130
▁uniform	-7131
▁argument	-7132
▁arrested	-7133
▁extended	-7134
▁flawless	-7135
▁dialogues	-7136
▁aforementioned	-7137
aurs	-7138
▁disj	-7139
▁intr	-7140
▁mish	-7141
▁beats	-7142
▁conqu	-7143
▁flynn	-7144
▁glenn	-7145
▁arrive	-7146
▁easter	-7147
▁fantas	-7148
▁plague	-7149
▁thumbs	-7150
▁connery	-7151
▁hitting	-7152
▁shortly	-7153
▁strikes	-7154
▁thrills	-7155
▁returned	-7156
▁complaint	-7157
▁directorial	-7158
▁accomplished	-7159
▁photographed	-7160
ko	-7161
tt	-7162
eur	-7163
ira	-7164
isms	-7165
uing	-7166
▁miy	-7167
▁nap	-7168
▁flav	-7169
▁hire	-7170
▁cared	-7171
▁concer	-7172
▁enters	-7173
▁spooky	-7174
▁winter	-7175
▁mustsee	-7176
▁outcome	-7177
▁wondered	-7178
▁abilities	-7179
▁affection	-7180
▁insulting	-7181
▁represents	-7182
▁achievement	-7183
▁charismatic	-7184
rial	-7185
inent	-7186
▁aimed	-7187
▁emper	-7188
▁tunes	-7189
▁builds	-7190
▁buried	-7191
▁liking	-7192
▁pushed	-7193
▁advance	-7194
▁bergman	-7195
▁conserv	-7196
▁detract	-7197
▁funeral	-7198
▁wannabe	-7199
▁projects	-7200
▁sadistic	-7201
▁segments	-7202
▁worthless	-7203
▁wrestling	-7204
▁concerning	-7205
▁pleasantly	-7206
arts	-7207
▁dur	-7208
▁unh	-7209
▁duty	-7210
▁load	-7211
resses	-7212
▁jewel	-7213
▁resur	-7214
▁spare	-7215
▁burned	-7216
▁hamlet	-7217
▁heroic	-7218
▁nearby	-7219
▁spider	-7220
▁willis	-7221
▁causing	-7222
▁matthau	-7223
▁stanley	-7224
▁stooges	-7225
▁worried	-7226
▁celluloid	-7227
▁landscape	-7228
▁prisoners	-7229
▁resembles	-7230
▁secretary	-7231
bott	-7232
inos	-7233
▁cia	-7234
▁clay	-7235
▁jake	-7236
▁kirk	-7237
making	-7238
▁craig	-7239
▁eleph	-7240
▁instit	-7241
▁resour	-7242
▁generic	-7243
▁picking	-7244
▁bathroom	-7245
▁childish	-7246
▁generous	-7247
▁stronger	-7248
▁carpenter	-7249
▁currently	-7250
▁compassion	-7251
▁conspiracy	-7252
▁disjointed	-7253
▁overacting	-7254
▁meaningless	-7255
rem	-7256
lets	-7257
▁aug	-7258
▁dow	-7259
▁lav	-7260
▁vel	-7261
▁pale	-7262
▁ross	-7263
▁salv	-7264
▁tool	-7265
cingly	-7266
ortion	-7267
▁adams	-7268
▁chain	-7269
veloped	-7270
▁hudson	-7271
▁valley	-7272
▁couples	-7273
▁fingers	-7274
▁luckily	-7275
▁receive	-7276
▁attached	-7277
▁lawrence	-7278
▁splatter	-7279
▁strictly	-7280
▁everyones	-7281
▁discussion	-7282
▁presumably	-7283
▁astonishing	-7284
▁twin	-7285
icient	-7286
▁blast	-7287
▁covers	-7288
▁hatred	-7289
▁insist	-7290
thearted	-7291
▁secrets	-7292
▁planning	-7293
▁university	-7294
unfortunately	-7295
nel	-7296
put	-7297
agan	-7298
mann	-7299
rict	-7300
vide	-7301
▁cul	-7302
▁hog	-7303
▁iii	-7304
asion	-7305
force	-7306
ilted	-7307
▁dire	-7308
▁nerv	-7309
▁oned	-7310
▁alike	-7311
▁clock	-7312
▁crisp	-7313
▁diane	-7314
▁rural	-7315
▁agents	-7316
▁comics	-7317
▁ingred	-7318
▁careers	-7319
▁fitting	-7320
▁affected	-7321
▁menacing	-7322
▁inspiring	-7323
▁sentiment	-7324
▁possibility	-7325
▁superficial	-7326
▁ridiculously	-7327
▁ya	-7328
ione	-7329
onym	-7330
unky	-7331
▁arc	-7332
▁pam	-7333
▁tie	-7334
▁upd	-7335
xture	-7336
▁blur	-7337
▁tail	-7338
▁swear	-7339
▁drivel	-7340
▁listed	-7341
▁nelson	-7342
▁sticks	-7343
▁streep	-7344
▁undoub	-7345
▁popcorn	-7346
▁imperson	-7347
▁scripted	-7348
▁continued	-7349
▁depression	-7350
▁um	-7351
gger	-7352
▁awe	-7353
▁jol	-7354
▁lit	-7355
▁bach	-7356
▁tank	-7357
▁mummy	-7358
▁rever	-7359
▁swing	-7360
▁strike	-7361
▁logical	-7362
▁distance	-7363
▁cinderella	-7364
▁delivering	-7365
▁comfortable	-7366
ggie	-7367
▁ian	-7368
acked	-7369
▁boom	-7370
▁signs	-7371
▁amanda	-7372
▁antics	-7373
▁cusack	-7374
▁respond	-7375
▁offering	-7376
▁sidekick	-7377
▁overlooked	-7378
▁implausible	-7379
▁politically	-7380
fr	-7381
crow	-7382
list	-7383
▁rum	-7384
▁frag	-7385
▁chaos	-7386
▁draws	-7387
▁exter	-7388
▁fired	-7389
▁kudos	-7390
▁claire	-7391
▁jeremy	-7392
▁cameras	-7393
▁disease	-7394
▁dorothy	-7395
▁kidding	-7396
▁obscure	-7397
▁juvenile	-7398
▁morality	-7399
▁offended	-7400
▁ruthless	-7401
▁admittedly	-7402
▁scientific	-7403
▁frankenstein	-7404
▁conversations	-7405
ata	-7406
ucky	-7407
▁jet	-7408
maybe	-7409
olves	-7410
▁itll	-7411
▁linc	-7412
▁merc	-7413
itudes	-7414
▁ingen	-7415
▁absorb	-7416
▁alltime	-7417
▁notably	-7418
▁airplane	-7419
▁metaphor	-7420
▁sentence	-7421
▁dinosaurs	-7422
▁exaggerated	-7423
ih	-7424
box	-7425
▁ec	-7426
aunt	-7427
ivan	-7428
▁dill	-7429
▁enem	-7430
▁luci	-7431
▁toss	-7432
▁porno	-7433
▁devoid	-7434
▁strang	-7435
▁airport	-7436
▁explore	-7437
▁screams	-7438
▁warrior	-7439
▁goodness	-7440
▁improved	-7441
▁overrated	-7442
▁involvement	-7443
dog	-7444
yes	-7445
▁doz	-7446
balls	-7447
paced	-7448
ctions	-7449
▁arist	-7450
▁label	-7451
▁sales	-7452
▁blacks	-7453
▁closet	-7454
▁height	-7455
▁synops	-7456
▁cassave	-7457
▁sadness	-7458
▁vicious	-7459
▁overdone	-7460
▁tarantino	-7461
▁terrorist	-7462
▁differences	-7463
▁investigate	-7464
▁unwatchable	-7465
eni	-7466
idal	-7467
▁woo	-7468
works	-7469
▁parad	-7470
▁lyrics	-7471
▁russia	-7472
▁tracks	-7473
▁ireland	-7474
▁kitchen	-7475
▁recover	-7476
▁staying	-7477
▁stinker	-7478
▁wallace	-7479
▁isolated	-7480
▁conscious	-7481
▁gradually	-7482
▁traveling	-7483
▁installment	-7484
▁huh	-7485
▁dish	-7486
▁gimm	-7487
▁holy	-7488
▁twel	-7489
▁bates	-7490
▁blend	-7491
▁disli	-7492
▁march	-7493
▁royal	-7494
▁houses	-7495
▁ticket	-7496
▁divorce	-7497
▁removed	-7498
▁shining	-7499
▁parallel	-7500
▁primarily	-7501
▁slightest	-7502
▁translation	-7503
▁unbelievably	-7504
ril	-7505
eryl	-7506
kish	-7507
road	-7508
story	-7509
▁anal	-7510
▁drum	-7511
▁peck	-7512
▁sedu	-7513
▁baker	-7514
finally	-7515
▁harder	-7516
▁headed	-7517
▁lugosi	-7518
▁rubber	-7519
▁spaces	-7520
▁suspic	-7521
▁unfair	-7522
▁devoted	-7523
▁liberal	-7524
▁griffith	-7525
▁prisoner	-7526
▁scarlett	-7527
▁ironically	-7528
▁prostitute	-7529
▁lighthearted	-7530
rs	-7531
▁yu	-7532
▁gil	-7533
▁wiz	-7534
▁arab	-7535
▁shaw	-7536
▁trio	-7537
arring	-7538
▁grasp	-7539
▁overt	-7540
▁closed	-7541
▁errors	-7542
▁throat	-7543
▁bullets	-7544
▁pretend	-7545
▁reached	-7546
▁befriend	-7547
▁opinions	-7548
▁dedicated	-7549
▁newspaper	-7550
▁transport	-7551
▁proceedings	-7552
pa	-7553
▁cd	-7554
ashes	-7555
icity	-7556
▁foul	-7557
▁humili	-7558
▁lincol	-7559
▁museum	-7560
▁racial	-7561
▁artific	-7562
▁benefit	-7563
▁require	-7564
▁contrary	-7565
rehensible	-7566
▁disturbed	-7567
▁explosion	-7568
zel	-7569
▁syd	-7570
▁wif	-7571
ecess	-7572
▁duke	-7573
▁gate	-7574
▁harr	-7575
▁holl	-7576
▁sett	-7577
▁ninet	-7578
▁shirt	-7579
▁angela	-7580
▁carter	-7581
▁convol	-7582
▁staged	-7583
▁dignity	-7584
▁fighter	-7585
▁measure	-7586
▁collabor	-7587
▁movements	-7588
▁rendition	-7589
▁undoubted	-7590
mi	-7591
dan	-7592
▁bam	-7593
▁dys	-7594
▁wet	-7595
aving	-7596
▁gand	-7597
▁grab	-7598
▁brook	-7599
▁randy	-7600
▁ships	-7601
▁stark	-7602
▁doomed	-7603
▁empire	-7604
▁fields	-7605
▁orders	-7606
▁poetry	-7607
▁buddies	-7608
▁executive	-7609
▁murderous	-7610
▁predecess	-7611
▁influenced	-7612
▁recognition	-7613
▁conventional	-7614
▁specifically	-7615
▁gad	-7616
▁vib	-7617
▁lips	-7618
▁inapp	-7619
▁ought	-7620
▁pants	-7621
▁atlant	-7622
▁mesmer	-7623
▁sloppy	-7624
▁beneath	-7625
▁cinemas	-7626
▁judging	-7627
▁occurred	-7628
▁subtlety	-7629
▁elaborate	-7630
▁intrigued	-7631
▁superhero	-7632
▁unbearable	-7633
lon	-7634
▁kl	-7635
girl	-7636
▁cav	-7637
emark	-7638
itect	-7639
ooses	-7640
▁clum	-7641
▁mate	-7642
▁neil	-7643
▁rage	-7644
ilarly	-7645
▁aging	-7646
▁blake	-7647
▁lucas	-7648
▁regul	-7649
▁canada	-7650
▁misses	-7651
▁partly	-7652
▁absence	-7653
▁encoura	-7654
▁inhabit	-7655
▁instant	-7656
▁mixture	-7657
▁motives	-7658
▁reunion	-7659
▁intrigue	-7660
▁synopsis	-7661
▁architect	-7662
▁classical	-7663
▁decisions	-7664
alo	-7665
kel	-7666
▁os	-7667
▁kay	-7668
▁lun	-7669
video	-7670
▁carr	-7671
▁elli	-7672
▁gest	-7673
▁gigg	-7674
▁jaco	-7675
▁odds	-7676
▁persu	-7677
▁satir	-7678
▁terry	-7679
▁alfred	-7680
▁coffee	-7681
▁incest	-7682
▁inject	-7683
▁acclaim	-7684
▁robbery	-7685
▁recorded	-7686
▁buildings	-7687
▁lifestyle	-7688
▁manhattan	-7689
▁psychotic	-7690
▁philosophy	-7691
▁stereotype	-7692
▁ko	-7693
bors	-7694
mart	-7695
oric	-7696
outh	-7697
▁abc	-7698
▁ned	-7699
asses	-7700
leton	-7701
▁synd	-7702
▁cards	-7703
▁mario	-7704
▁serge	-7705
▁clumsy	-7706
▁cruise	-7707
▁custom	-7708
▁hopper	-7709
ications	-7710
conscious	-7711
▁commented	-7712
▁explaining	-7713
▁frustrating	-7714
fu	-7715
ji	-7716
etti	-7717
pite	-7718
▁amy	-7719
every	-7720
filled	-7721
▁recru	-7722
▁damage	-7723
▁depend	-7724
▁detect	-7725
▁models	-7726
▁ranger	-7727
▁titled	-7728
▁highest	-7729
▁reduced	-7730
▁channels	-7731
▁misunder	-7732
▁gangsters	-7733
▁producing	-7734
▁alternative	-7735
▁captivating	-7736
▁psychiatrist	-7737
voc	-7738
ints	-7739
uity	-7740
▁jord	-7741
▁pays	-7742
▁bands	-7743
▁climb	-7744
ciating	-7745
▁cringe	-7746
▁relies	-7747
▁campbell	-7748
▁narrator	-7749
▁inventive	-7750
▁convoluted	-7751
▁recognized	-7752
▁threatening	-7753
len	-7754
inda	-7755
will	-7756
▁duo	-7757
▁ego	-7758
▁maid	-7759
▁rust	-7760
▁tang	-7761
▁bruno	-7762
▁dutch	-7763
▁sweep	-7764
▁tracy	-7765
▁trees	-7766
▁wells	-7767
▁agreed	-7768
▁estate	-7769
▁justin	-7770
▁walken	-7771
▁branagh	-7772
▁existed	-7773
▁pushing	-7774
▁arrogant	-7775
▁enormous	-7776
▁mountains	-7777
▁scarecrow	-7778
vity	-7779
▁fay	-7780
▁raj	-7781
▁tea	-7782
▁barg	-7783
▁owen	-7784
▁whis	-7785
▁wine	-7786
▁vegas	-7787
▁apolog	-7788
▁darker	-7789
▁blatant	-7790
▁enemies	-7791
▁exposed	-7792
▁illegal	-7793
▁reaches	-7794
▁eighties	-7795
▁onscreen	-7796
▁innovative	-7797
▁population	-7798
▁simplistic	-7799
oor	-7800
ora	-7801
plo	-7802
idel	-7803
john	-7804
▁ath	-7805
▁scot	-7806
▁sill	-7807
▁futur	-7808
▁acknow	-7809
▁murray	-7810
▁planned	-7811
▁clothing	-7812
▁heartwar	-7813
▁strangers	-7814
▁trademark	-7815
▁psychopath	-7816
▁distracting	-7817
▁grandmother	-7818
▁unintentional	-7819
resp	-7820
▁lap	-7821
▁ple	-7822
▁unm	-7823
gener	-7824
▁keith	-7825
▁ruins	-7826
▁exotic	-7827
▁libert	-7828
▁limits	-7829
▁styles	-7830
▁honesty	-7831
▁workers	-7832
▁imagined	-7833
▁depressed	-7834
▁performer	-7835
▁sacrifice	-7836
▁similarly	-7837
▁photographer	-7838
ucc	-7839
▁cg	-7840
aver	-7841
olph	-7842
seen	-7843
▁nem	-7844
▁sht	-7845
▁kurt	-7846
▁rail	-7847
▁solo	-7848
▁sung	-7849
horror	-7850
▁myers	-7851
▁recon	-7852
▁basket	-7853
▁carrie	-7854
▁handed	-7855
▁notion	-7856
▁passes	-7857
▁scores	-7858
▁solely	-7859
▁temple	-7860
▁versus	-7861
▁depicts	-7862
▁endings	-7863
▁primary	-7864
▁hopeless	-7865
▁describes	-7866
▁succeeded	-7867
▁introduces	-7868
▁terrorists	-7869
▁dimensional	-7870
esc	-7871
rep	-7872
▁gw	-7873
isha	-7874
▁eva	-7875
▁jar	-7876
▁wig	-7877
enthe	-7878
mares	-7879
▁anch	-7880
▁yawn	-7881
tering	-7882
▁conve	-7883
▁equip	-7884
▁excru	-7885
▁nause	-7886
▁candid	-7887
▁casual	-7888
▁defend	-7889
▁guitar	-7890
aneously	-7891
▁catches	-7892
▁splendid	-7893
▁education	-7894
▁immensely	-7895
▁miserable	-7896
▁principal	-7897
▁thoughtful	-7898
▁choreography	-7899
ped	-7900
▁awa	-7901
▁kin	-7902
▁nov	-7903
▁obt	-7904
iance	-7905
▁fist	-7906
▁mudd	-7907
▁loads	-7908
▁martha	-7909
▁muslim	-7910
▁uneven	-7911
▁unsett	-7912
▁colonel	-7913
▁montage	-7914
▁homeless	-7915
▁madefort	-7916
▁provoking	-7917
▁hitchcocks	-7918
▁undoubtedly	-7919
▁heartwarming	-7920
sky	-7921
▁cox	-7922
▁fog	-7923
▁gee	-7924
▁lip	-7925
▁pee	-7926
uable	-7927
▁demo	-7928
▁impe	-7929
▁poll	-7930
▁reel	-7931
▁alert	-7932
▁exhib	-7933
▁flies	-7934
▁adoles	-7935
▁astron	-7936
▁circle	-7937
▁copies	-7938
▁dozens	-7939
▁fisher	-7940
▁grotes	-7941
▁julian	-7942
▁nicole	-7943
▁peters	-7944
▁anyways	-7945
▁failing	-7946
▁teaching	-7947
▁punishment	-7948
▁consistently	-7949
▁cag	-7950
ovich	-7951
▁boun	-7952
▁ears	-7953
verted	-7954
▁rooms	-7955
▁ultra	-7956
related	-7957
▁menace	-7958
▁settle	-7959
▁valent	-7960
function	-7961
▁amounts	-7962
▁despair	-7963
▁stellar	-7964
▁unfolds	-7965
▁patients	-7966
▁unoriginal	-7967
▁excruciating	-7968
▁ts	-7969
iner	-7970
only	-7971
step	-7972
year	-7973
▁bul	-7974
cethe	-7975
ivals	-7976
orthy	-7977
▁eaten	-7978
▁fever	-7979
▁mafia	-7980
▁shine	-7981
▁spike	-7982
▁steel	-7983
▁bottle	-7984
▁enterp	-7985
▁global	-7986
▁relent	-7987
▁scheme	-7988
▁turner	-7989
izations	-7990
▁dynamic	-7991
▁frankie	-7992
▁neglect	-7993
▁smaller	-7994
▁cheating	-7995
▁comparing	-7996
▁witnessed	-7997
▁yesterday	-7998
▁consistent	-7999
▁nightmares	-8000
▁accompanied	-8001
▁countryside	-8002
wo	-8003
bow	-8004
bre	-8005
▁hmm	-8006
▁hoo	-8007
▁lor	-8008
aware	-8009
▁aven	-8010
ulsive	-8011
▁bette	-8012
▁crush	-8013
▁stall	-8014
▁wides	-8015
▁carrey	-8016
▁junior	-8017
▁patric	-8018
▁rebell	-8019
▁rocket	-8020
▁illness	-8021
▁nonstop	-8022
▁pattern	-8023
▁wrapped	-8024
▁adequate	-8025
▁coherent	-8026
▁explored	-8027
▁focusing	-8028
▁maintain	-8029
▁satisfied	-8030
ami	-8031
gel	-8032
conn	-8033
peop	-8034
▁mtv	-8035
estic	-8036
▁fier	-8037
▁keen	-8038
▁util	-8039
icking	-8040
▁forms	-8041
▁forty	-8042
▁hates	-8043
▁pearl	-8044
▁props	-8045
▁tires	-8046
▁advise	-8047
▁defeat	-8048
▁giallo	-8049
▁poetic	-8050
▁crucial	-8051
▁exploit	-8052
▁trained	-8053
▁function	-8054
▁instruct	-8055
▁purchase	-8056
▁equipment	-8057
▁financial	-8058
▁horrifying	-8059
▁constructed	-8060
car	-8061
hour	-8062
▁falk	-8063
▁flag	-8064
▁sits	-8065
▁tame	-8066
▁user	-8067
▁wore	-8068
ogical	-8069
▁flood	-8070
▁fonda	-8071
▁intim	-8072
▁lackl	-8073
▁pacif	-8074
ensions	-8075
▁agrees	-8076
▁fooled	-8077
▁guests	-8078
▁monolog	-8079
▁composed	-8080
▁emphasis	-8081
▁trailers	-8082
▁helicopter	-8083
▁passionate	-8084
abs	-8085
nan	-8086
▁ak	-8087
iour	-8088
▁nas	-8089
▁sel	-8090
▁tan	-8091
ulate	-8092
▁subl	-8093
▁legal	-8094
▁square	-8095
▁painted	-8096
▁companion	-8097
▁convincingly	-8098
▁ny	-8099
iant	-8100
oster	-8101
▁blew	-8102
▁lamp	-8103
▁pony	-8104
▁rang	-8105
▁urge	-8106
▁vice	-8107
▁stabb	-8108
▁dramat	-8109
▁stress	-8110
▁vulgar	-8111
▁justify	-8112
▁nervous	-8113
▁nonsens	-8114
▁stevens	-8115
▁website	-8116
▁practice	-8117
▁recording	-8118
▁hilariously	-8119
▁potentially	-8120
▁considerable	-8121
▁similarities	-8122
▁responsibility	-8123
ggy	-8124
▁gyp	-8125
▁lan	-8126
assed	-8127
iffer	-8128
rates	-8129
▁adul	-8130
▁boll	-8131
▁hick	-8132
▁whit	-8133
redict	-8134
▁inane	-8135
▁misle	-8136
▁miyaz	-8137
▁curtis	-8138
▁dating	-8139
▁enjoys	-8140
▁prompt	-8141
▁rising	-8142
▁streis	-8143
▁chicken	-8144
▁enchant	-8145
▁titanic	-8146
▁borrowed	-8147
▁seventies	-8148
▁spielberg	-8149
▁hollywoods	-8150
▁mentioning	-8151
▁furthermore	-8152
▁transformation	-8153
ni	-8154
ela	-8155
erk	-8156
bury	-8157
olas	-8158
▁kap	-8159
▁syl	-8160
▁upl	-8161
▁echo	-8162
▁pops	-8163
▁rita	-8164
▁sway	-8165
▁amuse	-8166
▁bonus	-8167
▁shelf	-8168
▁bourne	-8169
▁gadget	-8170
▁kicked	-8171
▁norris	-8172
▁useful	-8173
▁abysmal	-8174
▁aggress	-8175
▁contrib	-8176
▁hideous	-8177
▁lincoln	-8178
▁mankind	-8179
▁americas	-8180
▁dinosaur	-8181
▁downhill	-8182
▁margaret	-8183
▁survived	-8184
▁historically	-8185
aste	-8186
bird	-8187
igan	-8188
otte	-8189
town	-8190
▁daw	-8191
▁gos	-8192
▁som	-8193
fight	-8194
▁dall	-8195
atched	-8196
▁birds	-8197
▁hench	-8198
▁optim	-8199
▁tooth	-8200
ivalent	-8201
▁rotten	-8202
▁suited	-8203
▁wealth	-8204
▁distingu	-8205
▁interrupt	-8206
▁creativity	-8207
▁resemblance	-8208
▁revolutionary	-8209
▁onedimensional	-8210
awa	-8211
agues	-8212
avoid	-8213
child	-8214
itled	-8215
ublic	-8216
▁glim	-8217
▁pric	-8218
▁ties	-8219
▁album	-8220
▁annie	-8221
▁derek	-8222
▁hurts	-8223
▁perry	-8224
▁shake	-8225
▁absent	-8226
▁costar	-8227
▁ernest	-8228
▁taught	-8229
▁blowing	-8230
▁cheated	-8231
▁glasses	-8232
▁protest	-8233
▁puppets	-8234
▁tonight	-8235
▁adorable	-8236
▁displayed	-8237
▁masterful	-8238
▁survivors	-8239
▁developing	-8240
▁deliberately	-8241
je	-8242
ima	-8243
▁sf	-8244
berl	-8245
brid	-8246
▁cel	-8247
▁mah	-8248
▁rer	-8249
▁vic	-8250
unned	-8251
▁bean	-8252
▁mast	-8253
▁orph	-8254
ission	-8255
oopers	-8256
▁brons	-8257
▁elvis	-8258
▁monot	-8259
▁tends	-8260
ressive	-8261
▁elimin	-8262
▁namely	-8263
▁rabbit	-8264
▁aristoc	-8265
▁arrived	-8266
▁bridges	-8267
▁drawing	-8268
▁eastern	-8269
▁edition	-8270
▁citizens	-8271
▁mistress	-8272
▁plausible	-8273
▁disappeared	-8274
▁overwhelming	-8275
▁philosophical	-8276
met	-8277
andy	-8278
hile	-8279
▁cod	-8280
▁sno	-8281
ables	-8282
inlaw	-8283
▁bent	-8284
▁bett	-8285
izable	-8286
school	-8287
▁armed	-8288
▁campa	-8289
▁feast	-8290
▁recyc	-8291
▁safet	-8292
▁brando	-8293
▁earned	-8294
▁immort	-8295
▁writes	-8296
▁classes	-8297
▁spirits	-8298
▁stilted	-8299
▁brutally	-8300
▁exchange	-8301
▁helpless	-8302
▁riveting	-8303
▁solution	-8304
▁troubles	-8305
▁contained	-8306
▁francisco	-8307
▁suggested	-8308
▁pretending	-8309
▁characteristic	-8310
pel	-8311
uge	-8312
once	-8313
pled	-8314
▁dee	-8315
▁pic	-8316
▁rag	-8317
▁mand	-8318
▁marty	-8319
▁param	-8320
▁tribe	-8321
▁buster	-8322
▁senses	-8323
▁temper	-8324
ographed	-8325
▁convent	-8326
▁directs	-8327
▁guessed	-8328
▁madonna	-8329
▁schlock	-8330
▁staring	-8331
▁unsatisf	-8332
▁alongside	-8333
▁formulaic	-8334
▁advertising	-8335
▁understated	-8336
aux	-8337
hay	-8338
sto	-8339
▁bs	-8340
▁py	-8341
oral	-8342
sect	-8343
oured	-8344
▁apes	-8345
▁dirt	-8346
▁obli	-8347
▁dolls	-8348
▁drops	-8349
▁melan	-8350
▁faster	-8351
▁safety	-8352
▁treats	-8353
▁parties	-8354
▁inferior	-8355
▁suitable	-8356
▁swimming	-8357
especially	-8358
▁resurrect	-8359
▁cassavetes	-8360
▁progresses	-8361
▁straightforward	-8362
hh	-8363
▁dy	-8364
▁aes	-8365
anted	-8366
antee	-8367
▁bite	-8368
▁flop	-8369
▁isab	-8370
▁sopr	-8371
▁twins	-8372
▁august	-8373
▁barney	-8374
▁chased	-8375
▁davies	-8376
▁divers	-8377
▁twelve	-8378
▁bedroom	-8379
▁careful	-8380
▁crystal	-8381
▁dentist	-8382
▁karloff	-8383
▁portion	-8384
▁yelling	-8385
▁garfield	-8386
ropriately	-8387
▁forbidden	-8388
▁illogical	-8389
▁neighbors	-8390
▁irrelevant	-8391
▁journalist	-8392
▁underlying	-8393
▁ingredients	-8394
▁cinematographer	-8395
ulf	-8396
alie	-8397
aron	-8398
erto	-8399
quel	-8400
vial	-8401
▁ape	-8402
▁han	-8403
▁jac	-8404
great	-8405
▁reck	-8406
ivable	-8407
▁antis	-8408
▁boris	-8409
▁legit	-8410
▁swall	-8411
▁carrad	-8412
▁marion	-8413
▁defense	-8414
▁engross	-8415
▁florida	-8416
▁topless	-8417
▁wounded	-8418
▁proceeds	-8419
▁madefortv	-8420
▁voiceover	-8421
▁reflection	-8422
oz	-8423
rob	-8424
rome	-8425
▁auss	-8426
▁jaws	-8427
▁jews	-8428
▁scoo	-8429
▁sust	-8430
acious	-8431
people	-8432
urance	-8433
▁edgar	-8434
▁lands	-8435
▁quinn	-8436
▁rebel	-8437
▁revis	-8438
▁circus	-8439
▁fought	-8440
▁ponder	-8441
▁wished	-8442
▁contrad	-8443
▁desired	-8444
▁destiny	-8445
▁jeffrey	-8446
▁sandler	-8447
▁shirley	-8448
▁floating	-8449
▁hamilton	-8450
▁intimate	-8451
▁grotesque	-8452
▁laughably	-8453
▁nostalgia	-8454
▁heartbreaking	-8455
ww	-8456
▁dw	-8457
onto	-8458
▁cens	-8459
▁curs	-8460
▁ease	-8461
▁soci	-8462
▁thre	-8463
▁whim	-8464
ousing	-8465
▁assem	-8466
▁felix	-8467
▁fluff	-8468
▁seeks	-8469
▁skate	-8470
▁tiger	-8471
▁endure	-8472
▁transp	-8473
▁trashy	-8474
▁bullock	-8475
▁elegant	-8476
▁foolish	-8477
▁matches	-8478
▁capturing	-8479
▁artificial	-8480
▁embarrassment	-8481
eu	-8482
aped	-8483
▁kaz	-8484
▁mcg	-8485
acies	-8486
thats	-8487
▁edit	-8488
▁excl	-8489
▁hann	-8490
▁iraq	-8491
▁laws	-8492
▁rave	-8493
▁tact	-8494
sthere	-8495
▁babys	-8496
▁sappy	-8497
▁twent	-8498
▁crocod	-8499
▁harold	-8500
▁simult	-8501
omething	-8502
▁combine	-8503
▁emperor	-8504
▁technic	-8505
▁promises	-8506
▁attitudes	-8507
▁celebrity	-8508
▁communist	-8509
▁guarantee	-8510
▁musicians	-8511
▁priceless	-8512
▁corruption	-8513
▁nomination	-8514
▁unsettling	-8515
alyp	-8516
done	-8517
gate	-8518
rama	-8519
▁avo	-8520
asing	-8521
bodys	-8522
orrow	-8523
otted	-8524
▁mund	-8525
alypse	-8526
donald	-8527
ethere	-8528
ilight	-8529
please	-8530
▁grind	-8531
▁hyper	-8532
▁newly	-8533
▁skull	-8534
▁thugs	-8535
▁banned	-8536
▁hypnot	-8537
▁joined	-8538
▁karate	-8539
▁lowest	-8540
▁ritual	-8541
▁runner	-8542
▁stinks	-8543
▁showcase	-8544
▁conceived	-8545
▁marketing	-8546
▁futuristic	-8547
▁frustration	-8548
bid	-8549
hot	-8550
acks	-8551
anim	-8552
ases	-8553
▁cri	-8554
claim	-8555
faced	-8556
▁peak	-8557
▁plod	-8558
▁tent	-8559
▁blunt	-8560
▁damme	-8561
▁jesse	-8562
▁proph	-8563
▁facing	-8564
▁warren	-8565
▁monkeys	-8566
▁frequent	-8567
▁dimension	-8568
▁incompetent	-8569
▁inappropriate	-8570
▁understandable	-8571
cha	-8572
irs	-8573
umin	-8574
yers	-8575
ysis	-8576
▁dyl	-8577
inity	-8578
oning	-8579
▁cake	-8580
▁doom	-8581
▁neur	-8582
▁rude	-8583
ceived	-8584
illian	-8585
▁buffs	-8586
▁moody	-8587
▁rocky	-8588
▁cannon	-8589
▁cliche	-8590
▁craven	-8591
▁dances	-8592
▁glover	-8593
▁lately	-8594
▁avoided	-8595
▁supreme	-8596
▁weakest	-8597
▁campaign	-8598
▁cleverly	-8599
▁contempl	-8600
▁partners	-8601
▁premiere	-8602
▁charlotte	-8603
▁conditions	-8604
▁remarkably	-8605
▁challenging	-8606
▁possibilities	-8607
bbed	-8608
▁hut	-8609
▁rul	-8610
▁afgh	-8611
▁doug	-8612
▁gems	-8613
▁unit	-8614
engers	-8615
ulated	-8616
▁lifes	-8617
▁scope	-8618
▁tripe	-8619
▁behave	-8620
▁ensues	-8621
▁exquis	-8622
▁grudge	-8623
▁phrase	-8624
▁unexpl	-8625
▁womens	-8626
▁beliefs	-8627
▁chapter	-8628
▁dancers	-8629
▁hunters	-8630
▁schools	-8631
▁chainsaw	-8632
▁ignorant	-8633
▁remained	-8634
▁operation	-8635
▁wellknown	-8636
▁motivations	-8637
bas	-8638
aled	-8639
aman	-8640
club	-8641
rier	-8642
ected	-8643
igner	-8644
▁cowr	-8645
▁idol	-8646
▁macy	-8647
ocaust	-8648
worthy	-8649
▁antic	-8650
▁awake	-8651
▁honey	-8652
▁leigh	-8653
▁wacky	-8654
▁condem	-8655
▁damned	-8656
▁outfit	-8657
▁rolled	-8658
▁warmth	-8659
▁alexand	-8660
▁closest	-8661
▁compens	-8662
▁pitiful	-8663
▁tourist	-8664
astically	-8665
▁glorious	-8666
▁incorpor	-8667
▁purposes	-8668
▁republic	-8669
▁nostalgic	-8670
▁relatives	-8671
▁vengeance	-8672
▁backgrounds	-8673
zs	-8674
mel	-8675
eter	-8676
▁clu	-8677
shine	-8678
▁chip	-8679
▁evid	-8680
▁prol	-8681
encies	-8682
▁meand	-8683
▁pages	-8684
▁sheen	-8685
▁slave	-8686
because	-8687
▁awhile	-8688
▁owners	-8689
▁scooby	-8690
▁sleaze	-8691
▁watson	-8692
▁kingdom	-8693
▁substit	-8694
▁travest	-8695
▁elephant	-8696
▁twilight	-8697
▁behaviour	-8698
▁wandering	-8699
▁transition	-8700
▁desperation	-8701
hr	-8702
ahl	-8703
zzy	-8704
▁dj	-8705
bill	-8706
mith	-8707
osis	-8708
▁gym	-8709
bergs	-8710
ravel	-8711
▁acid	-8712
▁amid	-8713
▁deaf	-8714
▁nerd	-8715
▁sore	-8716
▁unin	-8717
▁crook	-8718
▁filmi	-8719
▁gloss	-8720
▁hints	-8721
▁phony	-8722
▁sneak	-8723
▁teams	-8724
▁tyler	-8725
▁harvey	-8726
▁waited	-8727
▁baldwin	-8728
▁claimed	-8729
▁enlight	-8730
▁marshall	-8731
▁relation	-8732
▁valuable	-8733
▁mysteries	-8734
▁prejudice	-8735
▁unpredict	-8736
▁popularity	-8737
▁widescreen	-8738
▁dysfunction	-8739
▁generations	-8740
wa	-8741
ele	-8742
hell	-8743
▁doo	-8744
▁tat	-8745
icism	-8746
provo	-8747
white	-8748
▁kent	-8749
▁mode	-8750
▁shod	-8751
▁tech	-8752
played	-8753
▁outdo	-8754
▁recre	-8755
▁conrad	-8756
▁garner	-8757
▁misery	-8758
▁online	-8759
▁photos	-8760
▁dickens	-8761
▁leaders	-8762
▁letters	-8763
▁minimum	-8764
▁wishing	-8765
▁bumbling	-8766
▁softcore	-8767
ploitation	-8768
▁depicting	-8769
▁household	-8770
▁surviving	-8771
▁underworld	-8772
bby	-8773
▁apt	-8774
▁bug	-8775
▁lic	-8776
andon	-8777
xties	-8778
▁caps	-8779
▁prey	-8780
▁socc	-8781
ulgent	-8782
▁hesit	-8783
▁lonel	-8784
▁mayor	-8785
▁scand	-8786
▁wifes	-8787
▁butler	-8788
▁cagney	-8789
▁cancer	-8790
▁chicks	-8791
▁dreary	-8792
▁ethnic	-8793
▁newcom	-8794
▁refuge	-8795
▁robots	-8796
▁arrival	-8797
▁descent	-8798
▁species	-8799
▁timothy	-8800
▁turkish	-8801
▁vaguely	-8802
▁passable	-8803
▁promised	-8804
▁teachers	-8805
▁viewings	-8806
▁virginia	-8807
▁authority	-8808
▁purchased	-8809
▁apocalypse	-8810
▁enterprise	-8811
▁vulnerable	-8812
▁educational	-8813
uf	-8814
eres	-8815
ersh	-8816
essa	-8817
rett	-8818
▁enh	-8819
▁nyc	-8820
▁clou	-8821
▁indu	-8822
▁june	-8823
▁mins	-8824
▁roof	-8825
▁scor	-8826
imagin	-8827
rophob	-8828
strong	-8829
▁analy	-8830
▁cream	-8831
▁grass	-8832
▁panic	-8833
▁prize	-8834
▁spain	-8835
▁spoke	-8836
▁coward	-8837
▁faults	-8838
▁intric	-8839
▁quotes	-8840
▁kubrick	-8841
▁invasion	-8842
▁showdown	-8843
▁sullivan	-8844
▁tomorrow	-8845
▁shameless	-8846
▁experimental	-8847
bet	-8848
bon	-8849
mit	-8850
▁sg	-8851
acle	-8852
iasm	-8853
orth	-8854
abled	-8855
▁baff	-8856
▁eats	-8857
▁hans	-8858
▁joel	-8859
▁pump	-8860
▁sess	-8861
▁yard	-8862
cience	-8863
▁greed	-8864
▁hatch	-8865
▁memor	-8866
▁reads	-8867
▁spock	-8868
▁stare	-8869
▁waves	-8870
▁boxing	-8871
▁graham	-8872
▁mighty	-8873
▁soccer	-8874
▁spacey	-8875
▁alleged	-8876
▁cigaret	-8877
▁screens	-8878
▁unhappy	-8879
▁arguably	-8880
▁richards	-8881
▁climactic	-8882
▁holocaust	-8883
▁equivalent	-8884
▁appreciation	-8885
▁civilization	-8886
iti	-8887
▁alm	-8888
▁gib	-8889
▁pix	-8890
▁foxx	-8891
▁hank	-8892
▁lect	-8893
▁bones	-8894
▁claud	-8895
▁noone	-8896
▁sched	-8897
▁engage	-8898
▁wisdom	-8899
etically	-8900
▁bernard	-8901
▁leather	-8902
austrophob	-8903
▁carradine	-8904
▁commander	-8905
▁correctly	-8906
▁gentleman	-8907
▁greatness	-8908
▁introduce	-8909
▁senseless	-8910
▁suspicious	-8911
beth	-8912
llis	-8913
urai	-8914
▁beg	-8915
▁asyl	-8916
▁flam	-8917
▁odys	-8918
▁poke	-8919
▁roth	-8920
▁toys	-8921
▁chess	-8922
▁downt	-8923
▁hokey	-8924
▁photo	-8925
▁rhyth	-8926
▁wives	-8927
▁anders	-8928
▁gifted	-8929
▁guards	-8930
▁muppet	-8931
▁roller	-8932
▁phillip	-8933
▁traffic	-8934
▁composer	-8935
▁performs	-8936
▁robinson	-8937
▁realizing	-8938
▁secondary	-8939
▁loneliness	-8940
▁discovering	-8941
▁nonsensical	-8942
▁exceptionally	-8943
ij	-8944
dra	-8945
gie	-8946
wer	-8947
eyed	-8948
ldom	-8949
▁aks	-8950
▁asp	-8951
▁eis	-8952
▁mim	-8953
acity	-8954
front	-8955
hears	-8956
▁edgy	-8957
▁iran	-8958
▁reno	-8959
▁riot	-8960
▁shah	-8961
▁stor	-8962
▁worn	-8963
▁balls	-8964
▁minus	-8965
▁slash	-8966
▁spagh	-8967
attered	-8968
▁austin	-8969
▁provoc	-8970
▁cunning	-8971
▁landing	-8972
▁phantom	-8973
▁refused	-8974
▁sixties	-8975
▁smiling	-8976
▁teaches	-8977
▁patience	-8978
▁patricia	-8979
▁sounding	-8980
▁tiresome	-8981
▁unimagin	-8982
▁astronaut	-8983
▁champions	-8984
▁enthusiasm	-8985
▁adaptations	-8986
▁represented	-8987
▁sensational	-8988
▁construction	-8989
alf	-8990
bot	-8991
opic	-8992
robe	-8993
them	-8994
▁hug	-8995
▁jos	-8996
haust	-8997
uated	-8998
▁entr	-8999
▁pron	-9000
▁ridd	-9001
▁saga	-9002
▁thru	-9003
▁mason	-9004
▁stard	-9005
▁wagon	-9006
perhaps	-9007
retched	-9008
▁nathan	-9009
▁tastes	-9010
▁wildly	-9011
▁affairs	-9012
▁prepare	-9013
▁weather	-9014
▁property	-9015
▁scottish	-9016
▁standout	-9017
▁comedians	-9018
▁corporate	-9019
▁integrity	-9020
▁nicholson	-9021
▁literature	-9022
▁complaining	-9023
fan	-9024
wan	-9025
▁ss	-9026
bbie	-9027
born	-9028
▁evo	-9029
▁lil	-9030
▁greg	-9031
▁kell	-9032
▁mids	-9033
▁quit	-9034
▁rant	-9035
▁rely	-9036
▁slip	-9037
oosing	-9038
▁indic	-9039
▁troma	-9040
▁glamor	-9041
▁jordan	-9042
▁lasted	-9043
▁loaded	-9044
▁orphan	-9045
▁undeni	-9046
▁venice	-9047
▁worker	-9048
▁defined	-9049
▁widmark	-9050
▁wouldbe	-9051
provoking	-9052
▁pressure	-9053
▁travesty	-9054
▁resulting	-9055
▁testament	-9056
▁conservative	-9057
van	-9058
riel	-9059
▁bos	-9060
▁eug	-9061
▁poo	-9062
ennes	-9063
eston	-9064
verly	-9065
▁chew	-9066
▁cron	-9067
▁prev	-9068
▁ster	-9069
▁wire	-9070
comedy	-9071
▁alter	-9072
▁bleed	-9073
amental	-9074
▁carmen	-9075
▁masses	-9076
▁troops	-9077
▁wizard	-9078
▁antagon	-9079
▁bargain	-9080
▁centers	-9081
▁checked	-9082
▁mundane	-9083
▁psychic	-9084
▁satisfy	-9085
▁crossing	-9086
▁disgrace	-9087
▁machines	-9088
▁conflicts	-9089
▁expressed	-9090
▁activities	-9091
eve	-9092
gio	-9093
gom	-9094
jay	-9095
fast	-9096
gery	-9097
itle	-9098
tery	-9099
▁sue	-9100
▁tyr	-9101
▁awak	-9102
▁clut	-9103
▁godz	-9104
▁romp	-9105
▁sept	-9106
▁habit	-9107
▁meryl	-9108
▁messed	-9109
▁raises	-9110
▁frances	-9111
▁heading	-9112
▁alcoholic	-9113
▁claustrophob	-9114
▁intentionally	-9115
▁simultaneously	-9116
idy	-9117
▁cum	-9118
stage	-9119
▁bast	-9120
▁chat	-9121
▁chop	-9122
▁darn	-9123
▁golf	-9124
▁ellen	-9125
▁altman	-9126
▁austen	-9127
▁halluc	-9128
▁awfully	-9129
▁commend	-9130
▁methods	-9131
▁pursuit	-9132
▁trivial	-9133
▁clueless	-9134
▁deranged	-9135
▁reaching	-9136
▁receives	-9137
▁secondly	-9138
▁simpsons	-9139
▁excessive	-9140
▁imitation	-9141
▁uplifting	-9142
▁disappears	-9143
▁experiments	-9144
rin	-9145
try	-9146
bast	-9147
▁gus	-9148
▁bass	-9149
▁caut	-9150
icidal	-9151
▁colin	-9152
▁hypoc	-9153
▁reson	-9154
▁stale	-9155
▁berlin	-9156
▁claude	-9157
▁humble	-9158
▁plight	-9159
▁bronson	-9160
▁objects	-9161
▁package	-9162
▁publish	-9163
▁samurai	-9164
developed	-9165
▁betrayal	-9166
▁disliked	-9167
▁releases	-9168
▁severely	-9169
▁compelled	-9170
▁directions	-9171
▁manipulative	-9172
▁questionable	-9173
lik	-9174
cket	-9175
▁lel	-9176
▁mcl	-9177
▁rex	-9178
amped	-9179
bbing	-9180
▁dele	-9181
▁gust	-9182
▁lean	-9183
▁dylan	-9184
▁maxim	-9185
▁petty	-9186
▁slice	-9187
▁catchy	-9188
▁hitman	-9189
▁mayhem	-9190
▁familys	-9191
▁kicking	-9192
▁visible	-9193
▁catching	-9194
▁exorcist	-9195
▁paranoia	-9196
▁resources	-9197
▁respected	-9198
▁definition	-9199
▁landscapes	-9200
▁counterpart	-9201
▁exploration	-9202
kis	-9203
omy	-9204
sex	-9205
▁il	-9206
comp	-9207
issy	-9208
leng	-9209
rows	-9210
atics	-9211
lined	-9212
ormal	-9213
still	-9214
▁chor	-9215
▁clip	-9216
▁mann	-9217
▁april	-9218
▁fleet	-9219
▁homes	-9220
▁selfd	-9221
▁afghan	-9222
▁custer	-9223
▁lemmon	-9224
▁maggie	-9225
▁preced	-9226
▁widely	-9227
▁corpses	-9228
▁cruelty	-9229
▁dresses	-9230
▁females	-9231
▁judgment	-9232
▁likewise	-9233
▁secretly	-9234
▁triangle	-9235
▁spaghetti	-9236
▁fascinated	-9237
kh	-9238
asm	-9239
rah	-9240
tte	-9241
anos	-9242
lied	-9243
▁nbc	-9244
check	-9245
uries	-9246
▁lily	-9247
▁mute	-9248
▁niro	-9249
▁taxi	-9250
▁aaron	-9251
▁cripp	-9252
▁dilem	-9253
▁pengu	-9254
▁sunny	-9255
▁trace	-9256
onymous	-9257
▁agenda	-9258
▁asylum	-9259
▁aussie	-9260
▁butter	-9261
▁cities	-9262
▁jumped	-9263
▁lively	-9264
▁seldom	-9265
▁montgom	-9266
▁retired	-9267
▁surfing	-9268
▁crawford	-9269
▁nicholas	-9270
▁stranded	-9271
▁sunshine	-9272
▁visiting	-9273
▁confident	-9274
▁evolution	-9275
▁objective	-9276
▁challenged	-9277
▁middleaged	-9278
ae	-9279
fly	-9280
anes	-9281
foot	-9282
▁fee	-9283
▁sas	-9284
icker	-9285
irsty	-9286
ppers	-9287
upert	-9288
▁bump	-9289
▁dazz	-9290
aneous	-9291
▁bunny	-9292
▁flair	-9293
▁trend	-9294
▁abused	-9295
▁amazon	-9296
▁childs	-9297
▁purple	-9298
▁summar	-9299
▁visits	-9300
▁antonio	-9301
▁exhaust	-9302
▁invited	-9303
▁miracle	-9304
▁motorcy	-9305
▁singers	-9306
▁sublime	-9307
▁virtual	-9308
▁advanced	-9309
▁assigned	-9310
▁brooklyn	-9311
▁harmless	-9312
▁mentions	-9313
▁phillips	-9314
▁spirited	-9315
▁warriors	-9316
▁biography	-9317
▁occasions	-9318
▁streisand	-9319
▁accomplish	-9320
▁exposition	-9321
▁simplicity	-9322
▁coincidence	-9323
▁improvement	-9324
lam	-9325
ianc	-9326
wind	-9327
▁nam	-9328
igans	-9329
▁aids	-9330
▁chin	-9331
▁diet	-9332
▁flee	-9333
▁fren	-9334
▁judy	-9335
▁mail	-9336
▁daddy	-9337
▁fifth	-9338
▁kitty	-9339
▁loren	-9340
▁realm	-9341
▁roots	-9342
▁saint	-9343
▁sweat	-9344
eworthy	-9345
▁counts	-9346
▁greedy	-9347
▁hippie	-9348
▁naught	-9349
▁static	-9350
▁abusive	-9351
▁demonic	-9352
▁raymond	-9353
▁robbins	-9354
▁tracking	-9355
▁companies	-9356
▁tasteless	-9357
▁witnesses	-9358
▁complexity	-9359
▁exceptions	-9360
ala	-9361
jim	-9362
orse	-9363
tons	-9364
▁cad	-9365
enger	-9366
ption	-9367
▁bars	-9368
▁cary	-9369
▁lens	-9370
▁oliv	-9371
▁reco	-9372
▁angst	-9373
▁lunch	-9374
▁reign	-9375
▁valid	-9376
▁fiance	-9377
▁polish	-9378
▁washed	-9379
▁comprom	-9380
▁diehard	-9381
▁muddled	-9382
▁nations	-9383
▁ordered	-9384
▁stunned	-9385
▁accuracy	-9386
▁overlong	-9387
▁fashioned	-9388
▁repeating	-9389
▁lackluster	-9390
▁differently	-9391
▁masterpieces	-9392
dys	-9393
asha	-9394
mail	-9395
phew	-9396
▁mud	-9397
goers	-9398
▁duch	-9399
▁milk	-9400
▁wong	-9401
inking	-9402
master	-9403
▁femme	-9404
▁fifty	-9405
▁rides	-9406
▁behold	-9407
▁cowork	-9408
▁noises	-9409
▁region	-9410
▁tomato	-9411
▁applaud	-9412
▁chooses	-9413
▁creator	-9414
▁gabriel	-9415
▁kenneth	-9416
▁unaware	-9417
▁analysis	-9418
▁exposure	-9419
▁insanity	-9420
▁wretched	-9421
▁alternate	-9422
▁crocodile	-9423
▁fantasies	-9424
▁precisely	-9425
▁christians	-9426
mun	-9427
spe	-9428
▁ic	-9429
acts	-9430
buck	-9431
awful	-9432
▁cuba	-9433
▁hoot	-9434
▁seed	-9435
▁stal	-9436
▁attor	-9437
▁breed	-9438
▁chill	-9439
▁pione	-9440
tovideo	-9441
▁belush	-9442
▁stuart	-9443
▁desires	-9444
▁randomly	-9445
▁regarded	-9446
▁inability	-9447
▁nightclub	-9448
▁choreographed	-9449
eta	-9450
ido	-9451
▁gy	-9452
ubby	-9453
▁duv	-9454
▁sig	-9455
iable	-9456
▁cope	-9457
▁furn	-9458
▁kyle	-9459
▁thie	-9460
▁whod	-9461
atures	-9462
▁diana	-9463
▁garbo	-9464
▁rates	-9465
▁veron	-9466
▁devils	-9467
▁doubts	-9468
▁hughes	-9469
▁narrow	-9470
▁planes	-9471
▁gimmick	-9472
▁credited	-9473
▁minister	-9474
▁referred	-9475
▁restored	-9476
▁addiction	-9477
▁compliment	-9478
▁industrial	-9479
▁underwater	-9480
bye	-9481
llo	-9482
obi	-9483
upp	-9484
was	-9485
▁eb	-9486
amin	-9487
bone	-9488
emic	-9489
▁lev	-9490
▁uwe	-9491
based	-9492
leans	-9493
▁cube	-9494
▁shif	-9495
▁casts	-9496
▁joins	-9497
mission	-9498
pecting	-9499
▁beware	-9500
▁divine	-9501
▁huston	-9502
▁nephew	-9503
▁newman	-9504
▁undert	-9505
▁lengthy	-9506
▁remarks	-9507
▁shoulder	-9508
▁completed	-9509
▁interests	-9510
▁accurately	-9511
▁carpenters	-9512
▁complaints	-9513
▁misleading	-9514
▁shakespeares	-9515
▁appropriately	-9516
uri	-9517
▁wt	-9518
aser	-9519
bergh	-9520
enson	-9521
mouth	-9522
▁narc	-9523
▁obst	-9524
▁rour	-9525
▁zeal	-9526
ancing	-9527
▁banal	-9528
▁donna	-9529
▁jenny	-9530
▁overs	-9531
▁smugg	-9532
▁tacky	-9533
likable	-9534
▁debate	-9535
▁gerald	-9536
▁ginger	-9537
▁statue	-9538
▁topnot	-9539
▁unseen	-9540
▁wheres	-9541
▁argento	-9542
▁designs	-9543
▁macbeth	-9544
▁winters	-9545
▁invented	-9546
▁shouting	-9547
▁symbolic	-9548
▁immediate	-9549
▁passengers	-9550
▁confrontation	-9551
hy	-9552
dow	-9553
haw	-9554
igo	-9555
felt	-9556
wear	-9557
▁fri	-9558
▁leo	-9559
▁map	-9560
▁sie	-9561
ersed	-9562
illes	-9563
▁degr	-9564
▁earl	-9565
▁lest	-9566
▁wals	-9567
▁wrap	-9568
erable	-9569
regard	-9570
▁atroc	-9571
▁elvir	-9572
▁latin	-9573
▁ranch	-9574
▁expand	-9575
▁ritter	-9576
▁rupert	-9577
▁seduct	-9578
▁wander	-9579
▁moronic	-9580
▁natalie	-9581
▁concepts	-9582
▁internal	-9583
▁stumbled	-9584
▁substant	-9585
▁topnotch	-9586
▁encourage	-9587
▁profanity	-9588
▁investigating	-9589
▁unpredictable	-9590
▁recommendation	-9591
occ	-9592
ota	-9593
vil	-9594
▁iq	-9595
anch	-9596
llie	-9597
zing	-9598
▁buzz	-9599
▁meas	-9600
▁mete	-9601
▁rapt	-9602
▁shat	-9603
apable	-9604
thetic	-9605
▁cybor	-9606
▁filth	-9607
▁grate	-9608
▁molly	-9609
▁remem	-9610
▁tramp	-9611
▁rhythm	-9612
▁subpar	-9613
▁nemesis	-9614
▁odyssey	-9615
▁victory	-9616
▁champion	-9617
▁godzilla	-9618
▁harrison	-9619
▁literary	-9620
▁musician	-9621
▁resemble	-9622
▁preposter	-9623
▁technicol	-9624
▁inevitably	-9625
▁positively	-9626
bar	-9627
akis	-9628
omic	-9629
ping	-9630
word	-9631
▁bun	-9632
▁dix	-9633
▁lup	-9634
▁nun	-9635
inist	-9636
▁dame	-9637
▁pill	-9638
▁rook	-9639
▁sale	-9640
ompson	-9641
▁bount	-9642
▁carly	-9643
▁conan	-9644
▁decor	-9645
▁dolph	-9646
▁enhan	-9647
▁exped	-9648
▁moron	-9649
▁quaid	-9650
▁wings	-9651
▁filler	-9652
▁gender	-9653
▁grainy	-9654
▁losers	-9655
▁salman	-9656
▁signed	-9657
▁adopted	-9658
▁closeup	-9659
▁forcing	-9660
▁quietly	-9661
▁atlantis	-9662
▁guarante	-9663
▁moreover	-9664
▁realised	-9665
▁sarandon	-9666
▁ambiguous	-9667
▁ignorance	-9668
▁murdering	-9669
▁neighbour	-9670
▁primitive	-9671
▁controlled	-9672
▁destroying	-9673
▁businessman	-9674
▁dysfunctional	-9675
mp	-9676
▁uh	-9677
issa	-9678
ours	-9679
▁jur	-9680
▁kum	-9681
▁nod	-9682
istol	-9683
▁babe	-9684
▁brig	-9685
▁dwar	-9686
▁kram	-9687
▁rere	-9688
▁stim	-9689
▁drake	-9690
▁fried	-9691
▁hello	-9692
▁hindi	-9693
▁monty	-9694
▁route	-9695
through	-9696
▁amused	-9697
▁babies	-9698
▁biased	-9699
▁demean	-9700
▁lifted	-9701
▁posted	-9702
▁reeves	-9703
▁samuel	-9704
▁therap	-9705
▁undead	-9706
▁voiced	-9707
▁voyage	-9708
inations	-9709
▁address	-9710
▁anyones	-9711
▁jackass	-9712
▁knocked	-9713
▁audition	-9714
▁egyptian	-9715
▁lifeless	-9716
▁sometime	-9717
▁generated	-9718
▁policeman	-9719
▁strongest	-9720
▁subjected	-9721
▁describing	-9722
▁demonstrates	-9723
▁distribution	-9724
▁interactions	-9725
▁unexpectedly	-9726
uh	-9727
guy	-9728
oqu	-9729
pan	-9730
▁wy	-9731
iver	-9732
nell	-9733
oura	-9734
▁sci	-9735
▁brat	-9736
▁diab	-9737
▁herz	-9738
▁tops	-9739
▁vein	-9740
▁conte	-9741
▁crown	-9742
▁lance	-9743
▁redne	-9744
agement	-9745
▁improb	-9746
▁orange	-9747
▁shares	-9748
▁assumed	-9749
▁hackney	-9750
▁injured	-9751
▁recycled	-9752
▁survivor	-9753
▁specially	-9754
▁containing	-9755
▁portrayals	-9756
▁fascination	-9757
▁significance	-9758
bey	-9759
bly	-9760
cel	-9761
icy	-9762
ndo	-9763
brow	-9764
gian	-9765
high	-9766
lina	-9767
mber	-9768
rien	-9769
▁nik	-9770
▁tvs	-9771
about	-9772
rants	-9773
▁benn	-9774
▁copp	-9775
▁goss	-9776
▁ling	-9777
▁lush	-9778
▁nove	-9779
▁bombs	-9780
▁brood	-9781
▁deriv	-9782
▁fianc	-9783
▁galax	-9784
▁heros	-9785
charact	-9786
▁ballet	-9787
▁confir	-9788
▁demise	-9789
▁eugene	-9790
▁hungry	-9791
▁locals	-9792
▁reader	-9793
▁remove	-9794
▁voight	-9795
▁chuckle	-9796
▁daniels	-9797
▁muppets	-9798
▁playboy	-9799
▁request	-9800
▁sending	-9801
▁delicate	-9802
▁demented	-9803
▁entitled	-9804
▁feelgood	-9805
▁polished	-9806
▁rendered	-9807
▁resident	-9808
▁thompson	-9809
▁silliness	-9810
▁unlikable	-9811
▁confidence	-9812
▁frightened	-9813
▁presenting	-9814
▁fundamental	-9815
▁inexplicably	-9816
▁assassination	-9817
▁representation	-9818
pol	-9819
▁kh	-9820
irts	-9821
oner	-9822
heart	-9823
▁bord	-9824
▁font	-9825
advent	-9826
itable	-9827
omeday	-9828
▁drove	-9829
▁hears	-9830
▁snuff	-9831
▁active	-9832
▁beatty	-9833
▁choppy	-9834
▁marked	-9835
▁merits	-9836
▁outing	-9837
▁queens	-9838
▁shoddy	-9839
▁stores	-9840
▁wholly	-9841
▁willie	-9842
▁disneys	-9843
▁loyalty	-9844
▁preachy	-9845
▁quarter	-9846
▁unravel	-9847
▁explores	-9848
▁northern	-9849
▁brutality	-9850
▁computers	-9851
▁prominent	-9852
▁obligatory	-9853
da	-9854
tan	-9855
assy	-9856
chen	-9857
izer	-9858
west	-9859
▁bod	-9860
▁cem	-9861
▁cue	-9862
▁cze	-9863
▁dil	-9864
▁mck	-9865
▁raz	-9866
▁rib	-9867
encer	-9868
gling	-9869
plete	-9870
▁bibl	-9871
▁gris	-9872
▁groo	-9873
▁misf	-9874
▁outd	-9875
▁plag	-9876
▁sara	-9877
▁slum	-9878
▁congr	-9879
▁dreck	-9880
▁fires	-9881
▁grief	-9882
▁insip	-9883
▁irene	-9884
▁akshay	-9885
▁exceed	-9886
▁freaks	-9887
▁heroin	-9888
▁infant	-9889
▁remade	-9890
▁authors	-9891
▁kissing	-9892
▁mildred	-9893
▁patriot	-9894
▁suspend	-9895
▁domestic	-9896
▁wardrobe	-9897
▁heartfelt	-9898
▁incorrect	-9899
▁rochester	-9900
▁supported	-9901
▁authorities	-9902
▁transformed	-9903
▁inconsistent	-9904
bu	-9905
iped	-9906
▁gap	-9907
▁goo	-9908
▁jod	-9909
▁tin	-9910
urned	-9911
▁abdu	-9912
▁bert	-9913
▁hats	-9914
▁melt	-9915
▁plum	-9916
▁seas	-9917
▁stag	-9918
▁wart	-9919
second	-9920
▁bread	-9921
▁cheek	-9922
▁fruit	-9923
▁infin	-9924
▁kathy	-9925
▁owned	-9926
▁patch	-9927
▁quant	-9928
▁vince	-9929
▁chorus	-9930
▁corman	-9931
▁drinks	-9932
▁mutant	-9933
▁puzzle	-9934
▁shared	-9935
▁tunnel	-9936
▁velvet	-9937
▁crashes	-9938
▁devices	-9939
▁empathy	-9940
▁remakes	-9941
▁sensual	-9942
▁simmons	-9943
▁standup	-9944
▁venture	-9945
▁shouldve	-9946
▁barrymore	-9947
▁hackneyed	-9948
▁startling	-9949
▁inaccurate	-9950
▁unlikeable	-9951
igm	-9952
eder	-9953
held	-9954
▁ark	-9955
▁kle	-9956
▁lux	-9957
▁pas	-9958
▁rav	-9959
▁upt	-9960
phone	-9961
▁bela	-9962
▁gere	-9963
▁joey	-9964
▁poem	-9965
▁sums	-9966
wright	-9967
▁grabs	-9968
▁slack	-9969
▁	-9970
e	-9971
t	-9972
a	-9973
i	-9974
o	-9975
s	-9976
n	-9977
r	-9978
h	-9979
l	-9980
d	-9981
c	-9982
m	-9983
u	-9984
f	-9985
g	-9986
y	-9987
w	-9988
p	-9989
b	-9990
v	-9991
k	-9992
j	-9993
x	-9994
z	-9995
q	-9996
